02
ff
ff
01
01
ff
02
fe
00
fe
01
00
03
ff
ff
ff
00
fe
01
ff
ff
ff
00
ff
01
ff
fe
00
00
ff
ff
fe
00
ff
ff
fe
03
00
fe
ff
02
ff
ff
ff
ff
01
ff
02
fd
02
00
fe
01
00
fe
00
ff
02
00
03
00
01
01
02
00
00
01
03
ff
ff
01
01
ff
00
02
ff
ff
ff
00
03
01
02
ff
01
01
01
fe
00
ff
01
02
02
01
02
ff
02
01
01
00
ff
ff
fe
01
00
ff
ff
ff
ff
fe
00
ff
02
ff
02
02
01
01
02
fe
fe
ff
ff
01
02
fe
01
fe
ff
fe
fd
02
ff
02
ff
02
00
00
fe
fe
00
00
01
02
03
00
fe
ff
ff
01
00
00
00
ff
fd
ff
ff
01
00
00
fe
01
fe
01
ff
00
fe
fd
01
01
ff
01
01
fe
fd
fd
fe
ff
fd
fe
00
fe
01
02
fe
01
01
fe
01
fd
01
ff
fe
01
01
fe
00
00
01
ff
00
fd
00
00
00
fe
01
fe
fe
fd
ff
fe
00
fe
ff
00
00
00
01
fd
01
fe
01
fd
00
fe
fe
fe
fd
ff
fd
00
ff
00
00
ff
00
ff
fd
01
00
00
00
00
01
00
ff
ff
01
01
00
fd
00
00
00
ff
ff
00
01
00
fe
00
02
00
ff
ff
01
ff
ff
00
fe
ff
ff
03
01
03
fe
01
01
ff
01
00
01
01
fd
fe
ff
ff
fe
00
01
fd
00
00
fe
ff
fe
01
01
ff
00
fd
fe
ff
ff
fe
fd
ff
00
01
00
01
00
ff
fe
fe
ff
01
fe
fd
ff
ff
fe
fd
fd
ff
ff
ff
fe
00
ff
ff
01
00
00
ff
fd
ff
ff
fe
01
ff
fd
ff
ff
ff
fd
fe
ff
fd
fd
ff
ff
01
00
00
01
fe
fe
02
fd
fe
00
03
00
fd
ff
ff
00
fd
01
fe
01
02
ff
fd
01
ff
fd
ff
03
00
01
ff
00
01
02
fd
ff
fe
00
fe
00
02
01
00
ff
00
ff
00
01
01
02
ff
fe
02
fe
00
00
00
03
fe
ff
00
ff
01
01
fe
00
01
01
00
03
01
fe
00
00
03
00
01
01
00
ff
fe
01
02
02
01
fe
02
02
fe
ff
02
ff
00
fe
01
02
ff
ff
ff
ff
fd
02
02
00
ff
fd
fe
fe
01
02
ff
fe
fe
fe
fd
01
fe
00
02
ff
ff
ff
ff
ff
01
00
ff
ff
fe
ff
00
00
fe
01
fe
01
fe
00
02
fe
ff
01
fe
ff
00
ff
00
01
fe
ff
00
fe
01
01
00
03
00
02
ff
ff
00
01
00
01
00
01
00
fe
00
fd
ff
fe
ff
02
fe
00
03
ff
03
00
ff
02
fd
ff
ff
00
ff
00
ff
ff
fd
ff
01
fe
00
01
ff
01
01
ff
fe
00
fc
ff
01
01
02
02
01
ff
01
fe
fe
00
01
ff
02
01
00
00
ff
01
01
02
fd
fc
fd
01
01
00
00
fe
fc
01
01
ff
fe
01
fe
fe
01
00
01
00
02
00
ff
fe
02
ff
01
00
fe
fd
fd
02
ff
01
fd
ff
ff
01
02
03
01
01
01
00
01
fd
ff
01
fe
00
00
fb
fd
fe
ff
01
02
00
01
01
00
00
01
ff
fe
ff
fe
ff
01
ff
01
fe
ff
fd
fe
fe
00
ff
fe
ff
01
01
ff
01
01
00
fd
01
fd
00
ff
01
fe
ff
01
00
01
00
ff
00
ff
01
00
fe
00
00
ff
01
fd
fe
fe
fe
00
fe
01
fe
00
ff
00
01
01
01
00
00
00
02
00
01
01
02
00
ff
02
fe
01
fd
02
01
fe
ff
00
ff
00
02
03
01
02
00
00
fe
fd
00
ff
00
02
ff
ff
01
02
fe
02
00
ff
00
01
02
02
fe
01
01
fc
ff
02
00
fc
02
fd
fa
01
ff
01
fd
fc
02
00
ff
fe
01
ff
ff
fe
fe
00
ff
02
02
00
fb
fa
ff
00
00
ff
ff
fb
fb
fb
fc
01
01
fe
ff
01
fe
ff
02
00
02
02
01
00
fe
00
fc
fc
03
00
01
00
00
ff
ff
00
fd
fe
02
fe
02
02
01
fd
02
02
02
fe
ff
00
ff
01
02
02
02
01
fd
fe
00
01
00
ff
01
ff
01
01
02
ff
ff
ff
00
ff
fe
02
fd
00
00
fe
00
ff
00
fe
01
fe
fe
ff
00
ff
ff
01
00
fe
ff
01
03
fe
ff
01
ff
01
00
01
01
02
ff
01
00
02
02
00
fe
fe
00
fe
fd
00
01
00
01
ff
ff
00
00
fe
ff
00
01
fe
01
00
ff
00
00
01
fe
02
ff
01
01
fe
01
ff
ff
fe
01
00
ff
ff
ff
fe
ff
00
ff
01
ff
02
03
ff
00
ff
00
01
fe
00
fe
01
fd
fe
00
fe
fe
01
ff
00
01
fd
fe
fd
ff
ff
ff
fe
01
01
fd
fe
01
00
01
ff
00
fd
00
fe
ff
ff
fe
01
fd
fd
01
fe
01
ff
01
ff
fe
00
00
01
fd
ff
ff
fd
01
00
fd
fe
fe
01
00
00
02
01
00
ff
02
00
01
fd
01
fe
fd
01
fe
fe
fd
ff
00
01
00
ff
00
ff
02
03
01
ff
ff
fe
ff
ff
00
ff
01
01
00
ff
01
00
fd
01
ff
01
00
03
ff
fe
03
00
ff
03
02
fe
fe
01
00
02
ff
ff
01
fe
00
03
01
00
fd
fe
ff
00
fe
01
01
fe
00
fe
fe
02
02
03
ff
00
00
00
02
fe
fe
fe
fd
00
01
fd
00
01
fe
01
00
ff
fe
01
00
fc
fe
fd
00
00
ff
01
fe
fe
ff
ff
ff
fd
ff
fd
fd
fc
fd
00
00
01
ff
ff
ff
fe
00
01
ff
ff
fd
ff
fd
00
01
fe
00
01
01
00
00
01
ff
01
ff
ff
fe
fe
00
00
fd
01
01
fe
00
01
00
fe
00
fd
fe
fe
fd
fe
00
00
fe
00
00
fd
00
01
fd
01
ff
01
ff
01
01
01
ff
00
01
fc
fc
ff
fe
01
ff
00
00
ff
03
fb
fd
ff
fe
01
ff
01
00
fe
ff
fd
02
ff
fc
03
fe
fd
ff
00
00
fe
ff
01
ff
ff
00
ff
fe
00
00
01
fe
ff
01
03
fd
02
00
fd
00
01
01
00
fe
fe
ff
fe
00
01
00
fd
ff
01
ff
02
fe
ff
fd
03
01
fe
fe
fd
fe
01
02
fe
00
01
01
fe
fe
02
00
ff
fe
00
fe
fd
00
ff
01
ff
01
00
fd
fe
01
fd
00
fe
01
00
ff
ff
fc
ff
00
fe
00
02
02
fe
03
fd
fd
00
fd
00
fc
fb
fd
fa
ff
fc
fd
fd
fe
fd
fe
01
ff
02
fd
00
00
02
00
00
fe
fd
02
fc
01
fe
01
01
fe
ff
01
01
01
02
fd
ff
ff
01
fd
02
fe
fd
00
01
ff
fe
03
02
fe
00
fd
fe
00
fa
ff
00
ff
01
01
02
00
02
00
fe
ff
01
01
00
01
00
ff
00
00
01
fe
01
01
02
fe
ff
00
fe
ff
ff
04
fd
01
01
00
02
00
03
fc
ff
fd
00
00
fd
00
ff
00
fe
00
02
fe
00
00
00
fd
fd
fe
fe
fe
01
01
ff
01
fe
ff
00
fd
00
fe
01
01
00
ff
ff
01
ff
fe
00
02
fe
01
01
03
00
ff
ff
00
ff
fc
fe
fd
02
fd
ff
fe
fd
ff
ff
ff
01
01
02
ff
ff
02
01
ff
01
fe
00
ff
02
00
ff
00
02
01
ff
ff
02
01
01
01
fe
00
00
fe
ff
fd
ff
ff
01
fe
01
02
fd
02
02
fd
fd
00
ff
fd
00
01
fd
01
ff
01
00
fd
fd
ff
fd
01
ff
01
00
01
fd
fe
ff
00
fe
ff
fe
ff
02
ff
fd
fe
ff
ff
ff
fd
fe
ff
01
00
fe
00
00
00
fd
00
03
00
01
00
00
fe
ff
00
fd
ff
fd
02
01
00
01
00
01
ff
00
01
00
00
fe
00
01
fe
fe
fe
fd
ff
ff
fe
00
fe
01
01
ff
03
01
02
02
02
01
ff
fe
00
ff
02
00
ff
fe
fe
ff
00
02
fe
01
00
01
02
00
03
02
01
01
01
fe
ff
00
00
00
ff
fb
fe
ff
ff
02
01
02
fe
01
00
ff
fe
fe
01
00
00
00
01
fd
ff
ff
fe
fe
ff
00
ff
00
fe
fe
01
00
ff
fe
00
01
00
01
ff
ff
01
fe
fd
ff
ff
fe
fe
00
ff
00
fe
fe
00
fd
ff
01
00
00
fe
fd
01
fe
01
fd
01
01
ff
01
ff
ff
00
fe
01
01
00
ff
03
ff
fd
fe
ff
ff
03
fd
fd
fd
01
03
ff
00
02
00
fe
fd
fe
fe
fe
ff
fd
02
fe
ff
fd
fe
fe
ff
fe
ff
ff
01
01
ff
fe
ff
01
ff
ff
00
fe
fd
ff
ff
fd
fe
ff
01
fe
ff
fe
ff
00
ff
fd
fe
03
00
fd
ff
01
01
01
fe
fd
01
00
fe
00
fd
00
01
ff
fe
fe
fe
fe
ff
fd
00
ff
01
ff
fe
01
fd
ff
00
01
ff
fe
01
01
ff
ff
01
ff
01
00
ff
00
fd
00
fd
fd
ff
ff
ff
00
00
fd
ff
01
01
ff
00
00
fe
01
00
fe
01
00
01
fd
01
fd
00
fd
01
01
01
01
ff
ff
ff
01
ff
00
ff
01
00
ff
ff
01
ff
ff
fe
ff
01
00
00
02
00
fe
00
03
01
00
00
fd
00
fc
fd
00
fe
00
fe
fe
fc
02
02
00
01
fd
fe
fd
ff
01
00
fe
01
fe
00
00
00
00
01
ff
00
01
ff
00
02
00
01
00
02
02
ff
01
00
ff
02
fe
ff
fe
00
01
ff
00
01
fd
00
02
01
ff
00
01
01
01
01
02
02
01
ff
ff
ff
ff
01
fe
01
fe
fd
fe
01
fe
fe
01
00
01
00
00
00
fe
01
ff
01
01
ff
ff
fe
fe
fe
fd
fe
01
01
00
fd
00
ff
00
00
fd
00
00
fd
fe
ff
fe
01
00
ff
01
ff
fe
01
01
fd
ff
ff
01
ff
ff
00
00
00
fe
00
ff
00
fd
ff
fe
ff
01
00
00
01
01
00
fe
fe
fe
01
01
fd
01
ff
fd
00
01
fe
fe
fd
01
ff
ff
00
fd
01
01
ff
fe
00
01
02
01
fe
fe
01
fc
03
03
02
03
01
01
00
01
01
ff
fc
ff
02
01
00
01
00
fd
fc
fd
01
00
01
02
01
fe
00
01
ff
03
01
ff
01
ff
fe
00
ff
02
01
01
01
01
ff
ff
fe
fe
ff
01
ff
fe
02
01
fe
fd
00
ff
fe
fe
fe
01
ff
fd
01
fd
00
ff
01
fe
00
ff
00
00
ff
01
00
ff
02
01
fe
00
ff
ff
fe
fe
ff
fe
ff
01
01
fd
00
fe
fe
01
fe
00
01
00
01
00
fd
01
fd
ff
01
fd
01
fe
ff
01
fe
00
ff
ff
fe
00
01
01
ff
01
01
00
01
fd
fd
00
00
01
01
01
01
ff
00
ff
00
fe
ff
00
ff
00
00
00
fe
00
fe
fe
fe
ff
03
00
01
fe
02
00
00
02
fe
fd
00
00
fe
fe
fe
fc
fe
00
ff
01
01
00
fd
01
ff
00
02
fe
01
ff
02
01
ff
02
00
01
01
ff
01
02
fe
02
00
01
02
ff
01
01
00
fe
00
fe
fe
03
01
02
00
fd
fe
00
00
02
01
00
fe
01
01
ff
fd
ff
01
01
01
fe
fd
03
02
ff
ff
ff
00
01
00
02
02
ff
fe
01
03
00
01
ff
ff
ff
01
02
fd
ff
02
02
fd
00
02
ff
01
01
ff
00
ff
02
ff
00
01
fe
01
03
00
ff
fe
01
fe
01
01
00
01
02
02
fe
ff
00
03
02
02
00
01
02
03
ff
01
fd
ff
00
ff
00
02
fd
00
01
ff
ff
00
00
fd
ff
ff
fd
00
01
00
01
00
01
fd
ff
fd
ff
ff
00
fe
02
00
00
ff
fe
01
02
00
fd
01
01
ff
fd
00
00
ff
ff
01
ff
00
fd
ff
fe
00
01
fe
00
ff
00
ff
fe
fd
01
00
fb
fd
01
01
ff
01
01
ff
00
fd
fe
00
00
ff
00
fe
00
fc
01
ff
ff
00
ff
fe
00
fd
01
ff
fe
ff
00
fe
00
ff
ff
00
fe
ff
01
ff
fe
01
00
01
01
01
00
00
ff
01
fd
fd
ff
ff
fd
fe
03
ff
ff
01
01
ff
01
00
fe
fd
fd
fe
fd
00
fd
ff
01
fd
00
00
01
01
fe
01
fe
01
fe
ff
ff
ff
ff
01
00
ff
ff
ff
ff
01
00
00
01
01
00
fd
01
fd
01
00
02
fb
01
ff
00
00
fe
ff
fd
fe
fd
ff
fd
00
01
ff
ff
fe
fd
01
ff
fe
01
02
01
fd
fd
fe
fd
fe
fe
fd
ff
ff
00
ff
02
fc
fd
02
ff
ff
00
ff
fd
fc
01
01
ff
01
01
03
fb
fe
ff
02
01
fd
01
fd
01
00
00
00
01
00
01
fe
fe
fe
00
fd
fe
ff
ff
fd
fe
ff
00
00
fd
ff
00
ff
ff
01
fb
02
fd
ff
fe
fd
02
fd
fc
fb
01
fd
fe
01
fe
fd
00
fe
fd
ff
ff
fe
ff
fe
02
01
fe
ff
fe
ff
fd
01
fe
ff
00
fe
fd
00
fd
fe
00
01
ff
fd
00
ff
fe
fe
01
00
ff
01
01
fd
ff
01
00
01
ff
fd
01
fd
fe
01
00
fe
fe
fd
01
01
00
ff
fd
fe
fd
fe
fe
01
fe
00
ff
ff
fe
fe
00
ff
fe
00
00
00
ff
ff
fd
fe
fe
00
01
ff
02
00
00
00
ff
01
00
01
ff
ff
ff
02
fd
fd
00
fe
fe
01
00
01
02
00
01
ff
ff
ff
01
ff
01
ff
fd
fe
ff
01
fd
01
ff
ff
ff
ff
01
fe
01
fe
00
00
ff
02
01
00
ff
00
01
fe
02
ff
03
fe
02
01
02
01
00
fe
01
00
01
ff
00
00
01
00
00
00
fe
01
ff
fe
fe
01
00
ff
01
00
02
02
00
ff
02
ff
00
ff
01
ff
ff
fe
fe
00
ff
01
00
00
fe
ff
ff
ff
ff
00
ff
fe
00
fd
01
ff
fd
00
fe
01
01
ff
00
01
00
00
01
00
00
fd
fe
fe
ff
01
fe
fe
fe
01
fe
ff
00
fe
fe
00
01
00
00
fe
01
01
01
00
ff
01
01
fc
00
ff
fd
00
01
fe
01
00
01
00
ff
00
fe
fd
fe
fe
fe
01
01
fe
fe
00
fd
fe
fd
fe
01
fe
00
ff
ff
01
fd
01
00
02
00
ff
00
00
00
01
02
00
fe
01
00
00
00
02
00
fc
ff
02
fe
00
fd
00
03
fd
02
01
ff
00
ff
01
00
01
00
ff
02
ff
fe
01
03
00
fe
00
01
00
00
00
01
01
fe
fe
fe
fd
fe
01
ff
00
ff
ff
fd
fd
00
ff
01
00
fe
01
00
00
fe
00
01
ff
00
01
fe
00
fc
00
01
ff
fd
fe
ff
fe
fd
ff
ff
fe
fe
fe
ff
ff
ff
fe
fe
01
00
00
ff
fe
00
fe
03
01
02
ff
00
01
01
00
00
00
fd
01
01
fe
01
00
00
01
00
02
00
00
ff
03
00
ff
ff
01
01
01
fd
fe
00
01
ff
01
ff
00
01
00
02
00
01
ff
ff
ff
00
03
00
fe
00
fd
fd
01
fe
00
fe
00
01
00
fd
00
fe
01
ff
fe
fe
00
01
fe
ff
fe
02
01
fe
fe
01
ff
01
ff
02
01
00
fd
ff
01
01
01
ff
ff
00
fe
ff
00
00
fd
fd
01
00
ff
00
fd
01
00
01
01
01
fd
ff
fe
fe
fd
fe
fd
01
00
fd
ff
ff
fe
00
01
00
ff
ff
00
ff
fe
ff
ff
fd
ff
fe
fe
01
fe
ff
01
ff
00
fd
fe
01
00
fe
01
fe
ff
01
ff
00
01
fe
fe
ff
01
01
fe
fe
ff
fd
00
fd
ff
00
fe
fd
00
00
fd
fe
01
02
01
00
ff
00
fe
ff
fe
fd
01
ff
01
01
00
00
fd
01
ff
00
1c
0a
0b
f4
10
fd
f2
ef
e9
e6
e7
ee
03
eb
08
f7
ef
04
2f
04
10
00
13
0e
fe
ff
fe
f6
e5
e5
04
0e
0d
fc
f4
06
07
f3
f1
08
fe
ef
f8
fe
ef
f9
00
00
05
00
f7
fd
02
00
01
00
cd
f0
19
0c
07
fb
f2
01
00
06
19
0b
06
ed
fd
08
fc
23
03
02
05
f3
04
fd
02
07
00
06
11
0e
f4
f1
17
ff
ea
16
23
1a
f2
05
01
fe
fa
f9
fa
02
01
ed
e1
f6
e2
eb
f7
03
13
16
e9
fd
e2
11
03
f1
0c
08
f8
f3
f8
00
f0
f4
0e
f9
00
ff
02
f6
fe
1a
03
17
fa
09
00
fd
07
f9
fb
09
02
fc
f7
fb
d8
dd
ee
f3
fd
e8
e2
08
f1
f4
fe
eb
f3
12
10
f5
0c
f2
f9
0e
06
ff
29
25
17
16
ef
f0
ea
06
01
e3
09
f6
ea
e6
f9
02
f5
f4
ec
10
03
f5
e2
07
f6
ee
01
0a
f4
ff
f0
fe
0b
e2
ef
19
e2
0d
03
d7
ec
0c
29
2b
04
e7
f4
fd
14
1b
23
f9
1c
20
13
df
ef
fc
0b
06
fd
f2
ee
fc
07
df
fe
e2
f3
fb
0a
de
19
04
ff
04
fd
f9
ff
01
ff
03
1d
09
e6
f5
ff
01
00
ff
ef
fc
f7
07
01
f4
f1
04
1a
0c
02
f5
f9
21
43
06
04
04
05
03
ec
01
0f
ea
0b
03
ea
e2
f2
0c
24
ff
01
f8
0b
01
f6
fe
0d
f7
e9
08
ea
ed
f9
04
f5
20
09
09
30
fc
22
11
03
01
28
fd
fc
eb
fe
f7
df
0a
13
19
1f
f6
e5
04
06
f0
01
00
f8
0f
f7
cf
f0
07
0e
f6
f9
dc
06
22
1f
08
02
fa
2d
db
f7
ff
07
09
1d
07
cf
f0
f6
08
10
09
00
f6
ea
11
09
1a
f6
0c
ec
0b
ff
06
e3
f9
14
01
06
ef
05
00
f4
27
f2
fc
08
02
ff
02
02
03
ff
03
01
fd
06
fe
16
0e
13
05
02
fd
ea
29
21
1e
17
0d
0a
1d
0b
0d
f2
f9
01
09
fd
fe
ff
0e
03
fb
fc
04
f8
f4
0a
08
fe
f0
e7
ff
fd
03
02
01
fc
02
f5
fb
13
06
02
e4
df
fc
e3
ef
05
00
01
ff
d8
d9
f2
15
ff
fe
0b
02
18
fb
01
fe
10
20
10
17
f9
fb
00
10
0d
04
1a
fb
fb
00
0c
06
02
10
f2
0e
01
eb
05
f2
06
11
05
0d
e5
11
06
0c
11
0e
f7
02
0e
f3
ff
ff
01
fa
05
1c
05
0a
f7
02
f2
f3
1d
e9
e9
fd
0e
fd
11
12
f7
fa
0a
04
02
0d
f0
04
1e
16
02
ff
ce
03
16
22
34
f9
04
e9
0c
ec
0d
3a
fd
ef
0c
09
d7
d3
f7
ed
ee
e4
1a
e6
f6
f9
f2
f1
04
11
f7
00
09
19
f5
06
00
fc
11
ea
fe
ea
01
1a
04
12
fd
f2
ff
fb
05
fb
f5
18
03
fe
13
2a
00
f1
12
08
fb
15
f4
07
fc
f9
18
04
ed
df
0b
fc
00
06
fa
f6
f7
18
05
e8
fa
00
ec
09
f7
fb
f9
04
00
df
ec
e8
f6
f4
ff
fd
f9
1d
eb
d8
f5
04
f8
0a
fd
17
e0
ef
0b
eb
e9
1a
0a
df
f3
ea
0b
19
ed
1e
0f
13
f1
07
0f
0c
db
05
13
eb
fe
14
eb
fe
fb
e2
01
eb
04
e6
f3
f1
ff
03
01
02
09
f8
f5
02
07
f9
fa
09
11
14
0e
10
fb
0a
29
e9
0b
e1
0c
00
1e
08
0c
22
00
07
ff
f5
0e
03
00
e8
ff
01
ef
08
12
02
01
10
f7
04
d9
0d
0b
ff
16
ef
e8
ff
f1
f4
0c
fd
ed
03
f1
db
12
4c
39
e1
f1
e7
08
24
37
13
f3
0c
26
f4
eb
f7
1a
07
0c
f0
e4
fc
e2
dc
e5
fb
fd
03
00
f5
f7
ea
ec
16
02
fa
11
25
01
06
02
f7
05
ff
04
02
19
34
0b
0f
ff
02
fd
f7
e5
09
f0
e7
02
fb
04
08
f5
fb
f7
fb
f8
08
22
08
f5
df
03
01
df
2f
06
f9
f3
05
02
db
02
0a
05
e0
ff
ff
06
0d
11
f9
02
03
03
12
ee
fa
f3
06
02
03
0f
d9
00
01
fa
1e
fc
ec
1c
0c
0c
0f
00
00
f9
17
39
23
0f
0a
fe
fa
06
fa
00
fc
08
00
fb
fa
27
fe
f4
02
fe
ff
04
05
03
06
04
ff
02
02
fe
18
f9
12
08
09
0b
fc
15
1c
1f
0a
17
1c
25
fb
fb
f9
f8
f9
f5
1b
06
09
fc
fd
01
04
06
fc
ed
0b
02
00
ee
02
04
fe
ff
fd
f7
10
04
08
07
0b
02
d0
0e
0f
09
05
08
e0
ce
09
0c
17
36
fe
02
e2
15
f8
f0
0d
f8
fc
0c
10
f4
fd
0a
0b
05
e4
de
fd
f1
f5
f3
f6
df
e7
10
00
f9
04
03
fe
0e
02
fa
01
03
fe
06
1d
05
ed
04
09
f7
e4
07
f7
d5
db
f2
0f
17
15
f0
fd
02
e8
10
09
0f
17
00
15
f2
f8
f7
04
0c
13
ef
0c
ff
11
ec
fe
f2
04
09
03
02
f7
f7
fd
ff
02
01
e7
de
0c
e0
f8
04
06
1a
f7
04
dd
ee
f7
05
f5
09
0a
13
0c
fe
0a
05
0c
19
0f
fe
12
ff
0b
15
16
fe
fc
f2
fa
fb
fc
f7
f9
f5
0b
fc
03
e9
0c
19
06
08
02
e2
eb
e9
01
1b
22
f2
f0
05
e2
f9
fc
1e
06
01
f4
ff
1c
fa
fc
ff
f8
24
1b
12
08
ff
0a
07
f1
0d
13
0f
01
ff
fc
e4
e2
fa
fb
01
07
f5
e9
dd
ec
fd
0d
ff
13
13
1c
f4
cb
01
01
01
09
e4
02
e5
01
01
fe
0b
fd
15
f8
03
01
07
12
19
01
ff
f4
ff
01
f9
13
eb
e8
fd
01
05
d6
f7
0a
f3
03
0a
fa
ed
03
ec
13
10
f8
f1
2e
f6
f8
d0
f2
ec
ec
19
2e
33
08
08
09
fe
f2
0b
05
11
e6
f8
04
07
f9
12
13
08
05
f4
fa
09
0f
e5
e7
0a
ea
1e
f6
fc
e1
0b
f1
03
e1
f9
08
02
00
eb
1b
f8
e2
fc
fc
08
f2
1f
fa
d4
f3
f6
21
f5
06
fd
f6
f7
04
1f
19
13
04
fd
10
ec
fd
fb
10
15
ea
06
fa
f0
f6
fe
f5
27
03
07
ff
01
02
00
ff
ff
f5
00
f2
ca
ff
0a
0c
07
09
f5
12
fa
03
08
15
18
f6
1e
05
fd
24
05
f7
f2
0c
05
0d
f8
0c
00
f6
f8
08
ef
f6
e9
f5
fe
d2
ff
fa
f6
fd
0a
02
f9
22
2d
ff
ff
f6
06
ff
16
ef
fe
d0
17
f7
de
f6
f8
f0
eb
08
05
2d
21
09
12
f9
f0
fb
08
14
20
0c
08
12
09
fc
dd
f5
ef
00
0a
02
ff
1f
06
e7
09
01
ff
1e
10
2d
0f
01
0a
08
0f
19
17
16
36
0a
0e
11
fa
fb
05
fa
0b
0b
04
00
f2
f0
20
0c
00
07
04
ea
ed
0e
0a
05
ef
fe
f5
f7
1a
0e
05
ef
05
16
f3
12
14
ff
ff
02
02
e6
ec
05
01
09
0c
f1
f5
13
12
fa
25
09
de
0a
0e
05
01
e5
e6
09
04
26
0d
ff
f8
fe
16
0b
f8
01
fe
e6
09
e6
fc
f1
03
00
02
ec
e7
f9
00
ff
01
01
fc
ff
0d
03
03
ff
0d
e1
eb
e9
18
02
01
06
16
fe
eb
10
fa
ff
ed
0a
e6
ed
0a
0e
01
f9
fb
f9
ee
06
0a
01
f2
07
fb
0c
fa
0c
03
fd
f4
fc
09
10
ff
00
ff
fb
12
0a
f3
00
00
f5
ec
e4
09
20
1b
f8
17
f3
06
06
17
06
fe
ed
02
f6
fb
00
fc
fa
ee
0d
f7
04
f4
03
01
eb
0d
11
e9
f6
01
fe
ed
fd
ff
02
06
0c
ff
00
19
09
f8
f2
01
07
01
ef
fc
fe
27
17
fa
20
f3
fc
fd
0d
f4
ff
01
fb
05
f0
fd
09
f4
f4
01
f1
fc
04
01
fe
f7
09
f8
ec
f5
fb
fe
fa
ff
03
ef
02
01
fe
08
13
01
08
19
11
fe
eb
02
f3
e3
21
10
fe
05
08
0c
07
f4
15
03
fd
16
0c
05
e4
fc
00
dd
fb
ef
0f
e0
fb
fd
fd
d7
00
f7
f2
06
fd
08
f1
1b
ea
e1
ff
ff
01
f3
0e
f4
01
ff
ff
09
0a
e6
f9
03
17
fb
0a
f6
f4
04
26
1d
18
eb
da
11
11
fe
f2
01
08
f2
1b
fa
f1
f5
fd
df
fd
ee
f5
f2
01
00
ea
d3
fe
0c
f4
02
ff
11
0e
16
04
05
03
09
20
f0
05
15
f9
09
19
f4
f4
fe
17
f4
01
fb
ee
02
0b
db
f2
17
0a
00
0c
f0
fe
ee
ea
f0
01
f9
08
ed
18
eb
fc
f9
e5
0f
0a
f0
02
fa
f8
e8
1a
13
12
05
f5
01
06
16
2a
03
0e
f2
00
07
ff
f0
f7
f2
ef
f1
ff
ed
12
fa
f5
f8
fc
f8
00
e7
17
db
f4
f1
02
06
08
0e
03
e6
f6
e7
0f
10
fc
f0
05
06
07
0d
f1
fe
00
fd
e6
f5
e4
15
0f
26
ed
f3
f4
0f
05
25
08
1b
f7
e8
07
0d
e0
00
03
f0
f8
fa
f5
04
e9
f2
f8
ef
fd
0a
f8
fc
fe
ea
e8
e3
03
06
01
04
02
05
05
02
03
04
04
05
03
04
07
08
03
07
05
06
05
06
07
07
04
03
03
05
01
04
04
02
02
03
05
05
07
05
00
05
06
06
06
03
06
06
0a
08
05
06
05
08
07
07
06
15
fd
0b
f1
04
17
fc
10
14
ff
ff
02
16
f1
ea
0a
f8
07
0c
08
f8
0f
f7
04
11
05
fd
fd
ea
f5
19
f5
f3
fe
07
1b
f3
ff
f4
fe
fb
01
03
16
ff
f9
0d
04
f8
06
21
14
0c
0f
ed
0f
d7
00
fe
0e
0e
f2
fe
fa
ed
e6
f6
08
0a
0a
f5
f3
f0
fa
13
0e
0f
1b
14
05
ef
0d
03
12
2f
22
07
0a
ff
00
ff
fc
15
f4
0b
f6
0f
eb
fc
12
12
f8
e8
fd
04
ef
e7
13
0b
0a
2c
1a
c7
e7
f0
02
19
04
09
f9
02
04
04
0e
08
08
eb
00
e4
10
ec
f8
ff
04
fb
07
f7
03
f7
1a
09
00
09
01
ee
d2
05
e1
ec
00
ff
d6
fd
08
01
f8
0f
10
10
fb
3c
19
0a
0f
ea
02
20
21
16
1e
01
14
d5
ff
f5
d6
14
13
ed
0c
f2
06
07
f8
f6
02
f9
ef
06
fe
f4
f9
fb
00
01
14
0a
12
fa
02
03
ea
f1
0b
ef
f2
f2
05
0c
13
1b
0b
f6
12
f5
f8
fb
fb
17
0b
01
f9
02
17
16
06
11
15
02
fb
05
03
ff
03
f8
fc
eb
e4
ec
fe
f4
0d
00
f6
ef
fd
ed
f0
fd
02
18
f7
1e
15
e0
fb
f1
1a
1a
ee
f5
e8
fd
07
03
fe
ff
28
1c
f2
01
f9
fd
0c
0d
ee
fa
fe
f1
1b
ff
04
00
29
01
fc
f5
0a
08
f2
07
ff
ff
0e
fa
14
ff
0c
fb
ec
ec
fe
0b
03
0a
f3
f5
11
f2
08
1c
08
1b
06
05
12
f3
18
fe
19
eb
f5
f9
0d
fd
04
f7
08
ef
f5
f4
fc
09
ed
e0
08
0e
03
fc
00
01
fb
fb
f9
f9
fa
ff
f9
fa
f9
05
01
02
fc
f8
f9
fa
01
fa
fc
01
fa
fc
f8
03
02
fa
fd
fc
fc
fb
04
04
fb
fe
f7
03
07
01
01
f9
ff
fa
00
fc
f6
f4
f8
00
00
f3
e7
0a
01
1f
03
fd
fe
03
15
fa
22
0a
ee
fd
0c
04
ec
f7
ee
fc
f8
ff
f1
0e
0e
fb
0d
03
f3
e9
04
05
1c
08
fc
1b
ff
0f
f1
14
05
fa
12
1e
00
13
ff
00
d7
14
01
11
31
ff
0f
fa
12
14
19
41
fb
f0
1a
fc
05
e5
fb
f8
17
10
19
11
f4
f5
fd
06
fe
24
e5
f6
12
01
fe
fc
19
fb
f8
f7
ff
05
f6
fd
12
fe
17
f1
01
01
03
f8
02
ff
00
ff
17
f2
e7
f2
04
fa
00
f9
f0
00
e6
eb
fe
00
f3
22
09
e8
f9
04
fc
e4
15
0a
1a
e9
fb
fc
13
05
03
09
e3
05
00
05
eb
14
0c
f8
02
02
0b
dc
f8
03
0a
00
01
04
f8
fd
20
fe
26
e8
00
f4
f6
f8
03
13
1b
00
07
f0
f6
fc
0e
04
fe
07
f4
ec
f8
07
08
f8
01
07
0e
db
04
01
f6
dc
0f
1b
07
f9
fb
fc
0d
e4
fd
fc
f5
fc
0a
f7
ee
0c
f0
09
f4
df
f6
00
1d
20
0c
08
09
19
f5
0a
16
0e
0e
ed
05
f6
08
1b
1f
09
fb
ed
f1
fe
f7
e0
f7
dd
fe
f3
fd
de
0c
fd
ff
04
06
fd
20
04
fb
cd
ee
02
13
fd
10
e6
dd
ef
fb
ff
1e
13
1f
f1
1c
f8
17
19
07
f9
17
10
f5
04
0f
02
0a
e1
f8
ef
fb
f7
ff
fc
d9
fc
0e
ff
fb
07
ff
0e
1e
08
1c
0f
01
0b
fa
16
f2
12
2f
f8
fd
0b
1f
f0
e4
12
f9
fa
09
15
fc
eb
ee
02
ff
f5
0a
e9
eb
ef
fe
01
09
07
e9
ef
da
00
fe
09
f5
f0
01
04
05
05
fe
ff
fa
fe
fd
fb
fb
de
fa
03
17
ef
18
e4
0f
f8
2e
2d
0f
12
01
0b
fc
01
0f
14
f7
12
f3
f0
ff
11
22
1d
f4
dd
e4
ea
e9
f1
eb
ff
e3
05
fe
ee
e8
22
02
f7
00
15
03
f8
02
01
fa
f1
db
08
24
04
06
f5
15
15
f9
00
07
01
10
31
1e
05
f0
fa
fd
f7
0c
f1
0e
f7
fe
fc
10
18
0d
fa
f6
ff
fe
f8
0e
08
1a
02
00
01
06
fc
fa
00
f9
02
05
0c
17
d8
13
1b
19
01
ed
f8
f2
f4
1c
1f
04
00
1c
ef
bf
f7
f9
fd
03
22
05
ec
f7
fe
00
ec
07
0a
16
e7
1c
ff
f7
f2
d0
f6
09
ff
ff
12
f3
06
f7
06
03
ff
e9
f9
ea
08
10
0f
d1
f6
fe
00
02
10
1d
30
f1
ee
1c
ff
e6
05
22
f4
06
e8
03
f4
01
03
e4
09
00
04
f7
05
02
fc
de
02
01
1b
fd
fd
f3
05
f4
e8
14
07
f8
f1
02
f6
ce
e7
e8
01
29
24
e4
ee
e0
ef
f6
fd
0c
0b
06
06
fb
05
15
01
1b
1d
07
02
02
0e
02
0a
db
e3
0d
04
f9
fe
07
f9
f9
05
01
06
f8
05
09
04
0c
e1
e6
00
17
14
12
12
04
d2
ed
05
f5
2b
23
ff
15
ed
20
05
e6
fc
02
14
04
dc
e6
12
f1
e3
f7
ea
ef
f8
01
fe
02
e1
f0
fc
0d
e7
23
01
01
02
01
01
02
ff
02
01
01
ff
00
01
02
fe
02
ff
02
01
ff
fe
fe
fe
01
01
02
fd
fe
01
00
01
02
ff
fd
02
02
02
00
00
01
01
fe
00
02
02
fe
00
00
00
f9
fb
fe
f6
ff
06
05
ee
03
0d
f0
e1
da
f5
f4
fe
12
11
2e
16
2a
0b
0b
0c
06
08
08
f5
02
13
ff
f9
1f
33
1d
e2
ec
08
02
00
d9
f3
f7
e5
e1
fb
d4
ee
05
00
02
f8
03
11
0b
f1
05
16
05
ff
0b
15
0e
05
ef
fd
f9
fd
f8
0d
fc
21
08
eb
de
e8
f7
07
2b
f7
0e
ec
06
e6
01
f9
f1
0d
0f
ff
15
03
0b
e3
18
1b
f1
18
00
05
fa
ee
f7
0c
ec
f8
df
0e
06
fb
01
0c
00
14
07
0d
ed
fe
08
f5
01
0f
00
18
03
f2
01
11
07
16
09
0f
11
ec
f9
15
f6
f3
03
05
f3
e5
f3
ed
dc
e7
fe
ff
01
01
02
00
fe
00
00
00
ff
00
fe
02
02
00
00
00
00
ff
ff
00
00
00
ff
01
ff
fe
01
fc
ff
fd
01
00
00
01
01
ff
fe
00
fd
ff
01
01
02
01
02
01
01
fc
ff
ff
fe
ff
00
01
01
ff
ff
01
ff
fe
01
00
fe
fe
01
02
fd
00
01
fe
fe
fe
fe
fe
fe
fd
ff
fe
fd
fe
fe
ff
ff
fe
00
ff
02
ff
01
00
ff
ff
ff
fe
00
01
01
00
00
01
ff
00
fe
fd
01
00
00
00
fc
00
fe
01
fd
ff
00
00
01
ff
ff
fe
fe
01
ff
ff
00
fd
ff
ff
ff
ff
ff
fe
01
01
fe
fe
01
01
fc
fe
03
fe
fd
01
fd
fd
00
00
01
fd
fe
01
fc
fe
00
fe
fd
02
fe
ff
00
ff
00
00
ff
00
00
fd
00
00
fe
00
01
00
fe
02
fd
02
fe
00
ff
fe
ff
fe
ff
ff
00
00
00
01
00
fe
fe
fc
00
fe
fe
fe
ff
fc
fc
ff
fe
fe
00
03
00
02
01
fe
00
01
fc
01
fe
fe
00
02
01
fd
02
ff
fd
01
01
00
02
00
ff
00
fd
ff
00
fe
ff
fe
fe
00
fe
01
ff
00
fe
00
00
ff
02
ff
ff
fd
ff
ff
fc
00
fd
fe
ff
ff
ff
02
ff
fe
ff
00
fe
01
ff
ff
01
ff
ff
fe
00
fe
00
00
fe
fe
00
fe
fd
01
ff
ff
ff
fd
fd
ff
fe
fe
ff
ff
fe
fe
fe
fd
fe
fc
00
00
fd
fd
fe
00
fe
ff
fd
fd
01
fe
ff
ff
00
fd
fe
ff
fd
01
00
01
00
ff
02
01
ff
ff
fe
00
00
01
03
ff
fd
ff
01
fe
fe
ff
01
00
02
00
01
ff
ff
ff
02
00
ff
fe
01
00
00
00
00
02
fd
ff
fd
ff
ff
00
01
ff
fe
fe
ff
ff
fd
01
ff
00
fe
fd
01
00
fc
01
ff
fe
00
fe
fe
fd
00
ff
fe
fe
02
00
ff
fe
01
00
ff
ff
ff
fe
ff
ff
ff
fe
01
fe
02
01
fd
ff
fd
ff
ff
03
fe
fd
01
00
fd
02
ff
01
fe
01
fd
00
01
00
fe
00
fe
fe
ff
ff
00
ff
ff
01
01
fe
fe
01
01
ff
ff
ff
ff
01
ff
fd
ff
00
fe
00
00
fe
ff
00
02
02
fe
02
ff
ff
ff
00
01
ff
fc
01
00
fe
01
02
fd
fd
ff
00
00
01
fe
ff
ff
fe
fe
ff
02
fe
ff
fd
00
fe
02
02
01
fd
fe
fd
01
ff
fd
fe
fd
01
fd
00
ff
ff
ff
01
fe
fe
01
00
ff
fd
fe
02
fe
fe
ff
fe
fe
01
ff
ff
fe
fe
fd
ff
01
fe
ff
fd
01
fd
fe
00
00
00
03
00
ff
fe
fd
02
00
fe
02
00
ff
00
ff
fe
01
02
00
02
fe
00
02
01
fd
02
02
02
00
00
fe
02
01
fe
00
00
ff
fe
ff
02
ff
fe
fd
ff
fe
00
00
fe
01
00
ff
ff
fd
fe
ff
ff
01
01
fe
ff
fe
01
02
ff
02
fd
01
02
00
00
fe
ff
00
01
fe
ff
00
ff
ff
01
fd
fe
fd
fe
01
fe
00
ff
01
fc
00
fe
fe
00
fe
00
ff
00
fe
fe
00
fe
fc
00
ff
fe
fe
ff
fd
fe
fe
ff
fc
ff
fe
fd
00
fd
01
ff
fc
fd
00
01
fc
fe
fe
fe
fe
ff
02
ff
fe
ff
fe
ff
fe
ff
00
fd
01
ff
fe
01
ff
fe
fc
00
00
ff
ff
ff
00
00
ff
fd
ff
fe
00
00
00
02
03
fd
fe
02
ff
02
01
02
fe
01
ff
01
00
fe
02
01
fe
02
00
ff
fe
00
fd
ff
ff
fe
fe
ff
00
00
01
ff
ff
01
00
fe
00
fd
fe
ff
fe
01
01
01
01
ff
fe
01
01
01
ff
00
02
00
fe
00
02
01
00
fd
ff
03
00
00
00
00
00
00
02
fe
ff
02
03
ff
00
ff
00
02
02
01
01
02
01
01
01
ff
fe
fe
00
fe
fe
ff
00
ff
02
00
fe
fd
ff
fe
01
02
fd
fd
ff
02
ff
02
fe
01
01
02
ff
00
ff
00
00
00
ff
00
ff
00
ff
fe
fe
01
01
ff
01
ff
00
fd
02
fe
00
fd
01
02
fd
fc
00
fe
01
02
ff
00
ff
fe
00
00
fe
fd
fe
00
fe
fd
00
ff
ff
02
00
02
00
fe
ff
01
02
00
00
fe
02
ff
00
fe
00
01
00
01
02
02
02
fe
fe
ff
01
fe
00
02
fe
fe
fe
02
02
fe
00
02
00
00
fd
fe
ff
ff
01
fe
fd
02
01
01
fe
ff
fe
00
fe
01
ff
01
fe
fe
00
01
ff
fe
fe
fd
01
fc
01
01
02
00
fe
fd
00
00
fe
ff
00
fe
01
00
00
01
02
fe
ff
00
fe
01
fe
fc
fe
02
fc
01
01
fd
ff
02
ff
00
00
00
ff
01
ff
fd
fc
fc
fe
fd
fe
fc
ff
fe
fd
fe
00
ff
00
01
00
00
ff
02
ff
ff
fd
fe
ff
fe
fe
ff
fe
fe
ff
fd
fd
ff
ff
00
fe
02
ff
fe
ff
01
fe
00
01
ff
00
00
01
02
00
00
ff
02
03
fe
02
00
fd
01
ff
ff
ff
00
01
01
ff
ff
ff
fc
00
fe
00
02
01
ff
ff
ff
fd
fd
01
02
fd
00
00
00
02
fd
ff
ff
ff
fe
fd
ff
00
ff
fe
00
00
fd
00
ff
00
01
00
fd
01
ff
fd
03
01
00
ff
fd
01
00
00
fe
02
fe
fd
fe
00
fe
fe
ff
fc
ff
fd
fd
02
ff
01
01
00
ff
fe
02
00
fe
ff
fe
fd
00
fe
00
01
02
00
fe
01
01
02
fd
02
ff
fd
03
02
00
02
ff
02
ff
fe
00
00
02
01
fd
00
fe
00
02
01
00
ff
fe
fe
fe
ff
fe
02
01
ff
ff
fd
fc
00
00
fe
02
ff
00
fe
01
fd
02
ff
fd
00
ff
ff
00
00
ff
ff
01
fe
fe
01
ff
fe
fe
fd
fe
fe
ff
ff
ff
00
ff
01
fe
00
ff
ff
02
00
fd
fe
ff
fe
ff
ff
fd
00
fd
ff
02
00
01
00
ff
02
ff
fe
ff
00
fd
02
01
01
fe
fc
00
00
02
02
01
ff
01
fc
fd
00
fe
fe
ff
fc
02
02
00
01
00
01
02
fe
fe
fe
01
ff
01
00
00
02
01
ff
01
00
01
ff
00
00
ff
ff
00
fd
01
fe
00
01
01
ff
ff
01
ff
00
00
00
ff
fc
ff
ff
01
fe
ff
ff
fe
fe
00
00
fd
fd
fe
00
ff
ff
fe
00
01
ff
00
fe
fe
ff
01
02
00
ff
01
ff
00
02
ff
fd
fd
00
01
00
00
00
fd
ff
ff
02
01
01
01
01
fe
fd
fd
00
01
00
01
fe
01
00
00
00
00
fe
ff
ff
00
02
00
00
00
ff
fe
00
00
ff
ff
00
00
ff
01
fe
01
01
00
ff
00
fc
fe
ff
02
ff
fc
fd
fd
00
fe
01
fe
00
ff
00
01
00
00
ff
fe
fe
00
00
fd
02
ff
00
01
ff
02
fd
ff
00
ff
00
00
01
fd
fe
00
fd
fd
02
02
00
00
fe
00
ff
01
fe
00
00
ff
ff
fd
ff
fd
00
00
00
fd
ff
00
02
01
fe
01
fe
fc
ff
ff
fe
fe
fe
01
ff
ff
fe
ff
02
fe
00
fd
fe
00
ff
01
fe
01
fd
fe
ff
02
fe
01
fd
00
00
02
ff
ff
01
00
fe
ff
fe
02
00
fe
01
ff
fe
01
00
ff
fc
fc
fd
03
fe
01
00
ff
02
ff
fe
00
01
02
ff
01
00
fd
fe
00
01
ff
ff
00
ff
01
fe
01
fe
01
fd
00
01
01
fe
fd
fd
fd
fe
00
00
00
ff
00
fd
fe
ff
00
fd
fd
00
fd
fd
fd
fe
ff
ff
01
fd
fc
00
ff
ff
fe
fe
ff
fd
00
fe
02
00
00
fd
fd
fe
fe
fe
fc
01
01
ff
ff
fe
01
fe
fd
ff
ff
00
00
02
00
fd
01
01
ff
02
fe
ff
fd
fe
ff
00
fd
ff
00
ff
01
00
fe
ff
01
ff
fd
00
fe
00
00
fe
ff
00
fd
fc
ff
ff
02
00
01
00
ff
fc
ff
ff
00
fe
ff
ff
01
00
00
fe
01
00
fc
fd
ff
00
fe
fe
fd
ff
ff
02
02
ff
fe
02
00
00
01
00
03
fd
02
fc
02
02
00
fe
ff
00
ff
fe
ff
00
fd
01
01
ff
ff
ff
ff
fd
00
01
02
00
fe
fe
ff
fc
fd
01
02
fe
fe
ff
fe
fe
fd
fd
01
00
fd
00
fe
02
00
fe
ff
ff
fe
00
ff
fd
02
ff
ff
fe
00
ff
fe
fe
fe
fd
00
02
fe
01
fe
ff
fd
fe
fd
02
ff
ff
02
fd
fd
ff
ff
fe
fd
fd
fd
01
ff
fd
00
00
01
ff
fe
00
fe
fe
00
00
fe
fd
fe
02
01
00
00
fe
ff
01
00
01
fe
ff
ff
02
fe
00
00
02
00
ff
fc
ff
fe
ff
01
00
ff
ff
fe
01
02
00
ff
fc
01
01
fc
00
fd
02
fd
fe
fd
fe
00
00
01
ff
ff
00
02
fe
01
01
00
fd
00
00
02
ff
01
fd
fe
fe
ff
00
01
02
fd
fd
fd
fe
00
fd
fe
00
ff
ff
00
02
00
01
fd
fe
fe
01
ff
00
fe
02
03
fd
fe
fd
fe
02
00
00
00
ff
02
01
ff
fe
ff
00
00
00
fd
ff
00
ff
00
fe
01
ff
ff
01
fd
ff
ff
01
fe
ff
fe
fe
01
ff
01
00
01
00
ff
02
02
00
fd
01
00
ff
00
fe
fe
00
00
02
01
00
01
00
02
fe
ff
00
01
02
ff
00
02
00
fe
fe
00
01
ff
01
ff
01
ff
ff
01
ff
00
ff
02
01
fe
00
fd
fe
fc
ff
fe
fd
02
01
ff
ff
00
01
fc
ff
ff
00
02
ff
ff
01
00
fd
fe
00
00
00
01
ff
00
fe
ff
01
fe
ff
01
01
ff
00
00
fd
fe
fd
ff
fe
00
fd
00
00
fd
00
00
ff
fe
01
00
fd
ff
02
fe
fe
ff
ff
ff
fe
fe
00
00
fd
00
fd
00
ff
fe
fe
fd
00
fe
fe
00
fe
ff
00
00
fe
01
ff
fd
00
ff
00
fe
ff
00
00
fe
00
00
00
fe
00
fd
02
00
01
01
fe
ff
00
ff
fe
fd
ff
02
fc
ff
02
fe
00
fd
fd
00
00
00
fd
00
fe
00
01
fd
00
fe
ff
fd
00
fe
ff
00
ff
fe
02
fd
ff
00
00
fd
fd
02
02
00
00
02
00
01
fd
ff
fd
ff
00
ff
fe
fe
01
01
00
ff
fe
fd
fd
ff
ff
00
00
00
ff
ff
fe
fe
fc
ff
ff
01
01
01
fe
ff
00
fd
fe
fe
fd
ff
01
fe
01
02
02
02
fe
fe
00
00
00
00
00
00
fd
03
00
fc
ff
01
00
00
00
fd
fd
fe
01
01
ff
ff
fd
fe
02
00
ff
01
fe
fd
01
01
ff
fe
fe
fd
01
fe
02
fe
fe
fe
ff
01
ff
fe
fd
00
00
fd
fe
fd
00
fe
02
fe
ff
ff
fd
fe
02
fe
fd
01
fd
ff
02
02
00
01
00
01
ff
ff
00
ff
fe
fe
ff
00
ff
fe
00
00
fe
ff
ff
ff
00
00
fe
fe
fd
01
ff
01
ff
01
ff
00
fe
fd
fe
00
01
01
00
ff
fe
ff
fe
fd
01
00
00
00
fe
01
fd
00
fd
fd
ff
01
00
00
fd
ff
ff
fe
00
ff
02
ff
ff
02
00
fe
01
ff
00
ff
02
00
01
02
00
00
00
00
01
03
ff
02
02
ff
02
00
fe
00
01
01
01
fe
03
02
ff
ff
00
00
fd
00
03
03
02
02
01
ff
fe
fe
02
00
01
fe
01
02
00
01
fe
ff
fe
02
00
00
ff
fe
00
ff
00
ff
00
01
00
ff
ff
fe
02
00
fe
ff
01
fe
ff
00
fe
02
fe
00
fe
01
fd
ff
00
fe
00
00
01
02
ff
00
fe
ff
fd
fe
00
00
02
00
ff
01
00
fd
01
ff
fd
fd
ff
00
fe
fe
01
01
00
fc
00
fe
01
fe
fd
fe
fe
fe
ff
02
ff
00
fc
00
01
ff
fc
02
02
00
fe
ff
fd
00
00
01
00
ff
fe
00
ff
ff
fd
fe
00
00
01
01
fe
ff
00
fe
ff
01
fd
fc
01
ff
fe
00
ff
fe
01
00
ff
02
00
fe
fe
00
01
fc
00
00
01
fe
ff
ff
fd
01
01
fc
00
ff
01
fe
00
01
ff
ff
00
fd
fe
00
02
02
ff
01
01
02
01
fd
01
02
ff
ff
ff
ff
fe
00
ff
01
00
fe
fe
02
00
01
02
02
fe
00
fc
01
fe
01
00
fc
01
00
fe
ff
01
01
ff
00
fe
ff
fe
fe
fe
fc
01
01
02
00
01
00
fe
01
ff
ff
ff
00
fd
00
ff
fe
fe
fd
fd
fe
fc
fd
fe
fd
ff
fd
01
fe
ff
fe
01
02
00
00
fd
02
ff
fe
01
02
ff
ff
fd
ff
fe
02
00
fd
fd
fe
00
00
fe
fe
01
fe
fe
00
00
00
00
00
fc
02
fe
01
00
ff
02
00
ff
ff
ff
fd
01
01
fc
ff
fd
01
00
02
ff
00
fe
ff
01
fe
ff
00
ff
02
ff
fe
fe
01
ff
ff
00
fc
ff
fe
fd
02
01
fd
01
00
00
fd
01
00
00
ff
ff
fe
00
03
ff
ff
fd
00
00
fd
ff
fe
00
fe
00
fe
00
00
fd
ff
01
fe
00
ff
ff
ff
fd
fe
fc
fe
00
fd
fe
00
fe
fc
fd
01
fd
00
ff
00
ff
00
ff
00
ff
ff
ff
fc
fe
00
fe
00
fe
00
fc
02
02
fc
02
01
ff
01
ff
ff
01
fe
00
fd
fe
ff
fe
ff
ff
fe
01
02
01
01
fe
fd
00
00
03
00
fe
00
00
fe
00
fc
fd
fd
00
fd
01
01
fd
fe
ff
fe
ff
00
fd
ff
fe
ff
01
fe
fe
fe
00
fe
00
00
00
01
03
ff
ff
ff
fe
00
fe
ff
ff
fe
ff
fe
fe
fd
ff
ff
ff
fd
00
ff
fe
fd
03
fc
01
fe
ff
02
fe
00
ff
01
ff
fe
01
01
fe
ff
fe
02
ff
fe
00
00
fd
02
fd
01
fe
fe
fd
fe
ff
ff
fd
00
00
00
ff
fe
fe
00
fe
ff
01
00
fc
fd
ff
fe
02
ff
00
02
ff
fe
fd
00
00
01
01
00
ff
01
fe
fe
fd
ff
ff
00
00
00
ff
00
01
00
fd
fd
ff
00
01
fe
fe
00
00
ff
01
01
01
00
ff
ff
fe
fd
02
fd
00
ff
ff
00
fe
fe
01
fe
01
fd
ff
fd
fe
00
01
02
fe
fd
ff
01
ff
02
02
00
fd
ff
ff
00
ff
fd
ff
ff
01
ff
00
fe
fd
fc
fe
00
ff
ff
00
01
ff
ff
fc
fe
00
00
00
ff
fd
ff
01
00
fe
ff
fe
01
ff
01
fe
00
02
ff
ff
fd
ff
00
01
fe
01
ff
ff
fe
fe
00
00
fe
fe
fd
fe
ff
fe
fd
fe
00
fe
fe
fe
00
ff
ff
01
00
00
fe
ff
02
01
00
fe
01
fd
02
fe
ff
02
00
ff
fe
01
00
02
ff
fd
01
fe
00
01
00
fe
01
02
fd
02
02
02
ff
01
03
02
01
00
02
fe
02
ff
fe
00
01
fe
ff
01
ff
02
fe
00
fd
01
fe
00
00
fe
fd
01
fe
01
01
01
00
ff
00
fe
00
00
00
02
fd
fc
00
fd
fd
ff
ff
fe
fc
ff
fe
00
fe
00
fe
00
00
fe
00
ff
00
ff
01
fd
00
ff
01
fd
fe
00
fd
00
02
ff
01
fd
fc
00
ff
fe
fe
01
01
fd
01
fc
ff
fe
01
fd
fd
02
ff
fd
fe
fe
fc
fe
01
01
02
00
fe
fd
fe
ff
00
fd
00
fd
01
00
ff
01
02
fe
fd
ff
00
02
01
01
00
01
00
fe
00
00
fd
fd
01
ff
02
01
fe
00
ff
01
fd
00
fe
02
fd
00
00
fe
02
ff
01
fe
fe
fd
fe
fe
01
fe
01
01
fe
fd
00
fe
14
06
fa
f9
03
ff
f5
e3
f8
e8
e0
ef
ff
f9
f9
1d
13
07
f6
fd
ff
fc
ef
e6
eb
1d
00
e7
0d
05
10
01
fa
00
fa
f7
fd
ee
fa
08
fe
fd
ee
f6
ff
ff
ff
00
01
01
02
fc
00
ff
ff
f2
f5
ec
0f
0b
ff
fd
fe
fb
f2
18
10
04
00
fb
cd
e9
f3
0b
08
fe
f0
f4
00
fb
04
f1
02
08
ff
06
ee
f9
f7
fe
01
05
03
10
06
05
00
00
02
08
ff
01
fd
fb
f1
23
22
06
ef
00
01
ec
02
0e
13
02
00
fe
df
fd
dc
07
00
00
f5
f3
0a
06
07
06
06
fd
f7
0d
fb
0b
fe
06
00
f2
f7
e1
e9
f7
ff
f8
02
20
25
11
ec
f9
01
fc
09
fe
f9
ec
f4
0c
06
f2
09
df
eb
fa
f4
eb
d5
e3
f1
fc
ff
fe
f2
d9
de
02
14
fe
0e
f0
fe
f4
0a
07
10
09
e9
00
03
f0
02
05
f7
f6
f7
f2
fe
fb
ef
ff
02
0f
12
10
f4
f6
03
0a
03
03
f3
e6
eb
f7
04
ec
00
02
02
00
00
d5
f7
f1
fc
fd
14
06
02
08
05
03
06
f4
fe
e1
ee
04
fd
06
00
fa
fd
fe
f3
09
fe
00
fd
09
25
30
08
ee
00
fe
19
e0
e2
ea
f8
fb
f8
ff
07
f1
03
fc
01
fb
06
09
fa
fd
f8
fb
07
1e
f3
f8
f8
10
01
04
f2
f0
d8
ee
01
fe
00
06
1f
11
f7
fa
00
02
0d
0a
04
f4
fb
f2
ff
ff
ff
0c
f1
f6
ef
fa
f5
fc
00
ed
fb
20
09
fc
fb
0c
08
12
04
06
01
f2
fd
fc
11
0b
00
f7
f1
fa
fc
ef
07
f4
04
32
0b
e8
f2
f1
f9
e5
1f
ff
f5
f3
fb
01
0a
23
15
fe
0a
f9
fb
db
ec
f9
f7
f8
f9
f7
f5
15
0e
13
ff
fb
fe
f4
13
fc
27
0d
fd
fe
04
e6
f7
fc
fe
fe
01
ff
01
fe
01
01
ff
00
fa
f6
06
fa
fa
01
ff
ed
f1
ef
ed
fe
fb
ff
ee
f2
04
f9
f9
fc
03
00
ee
fd
f5
f9
02
f7
f2
f6
fe
f1
15
fe
02
00
04
fe
02
ff
01
01
fb
20
11
1c
0b
00
fd
f9
08
11
17
f4
07
ff
ff
0e
05
fc
01
f9
02
e4
fb
fe
fb
15
f5
f9
f7
0d
07
f7
f7
0f
00
1a
24
07
11
10
ec
ff
f2
ec
f0
fb
11
01
00
04
03
ee
09
0e
01
ff
fa
14
0b
08
09
06
00
06
06
14
ec
f8
09
02
ed
f7
04
00
fe
07
ff
ec
1f
fa
0b
02
ff
ff
0f
fe
fd
f9
0d
03
01
08
04
fa
0a
0c
09
10
f9
28
ed
e2
06
f8
0c
fa
1a
f8
0b
f6
ff
0e
e9
0c
08
ff
f4
03
05
ec
02
00
fa
01
fa
09
f0
14
fd
f9
0e
f3
0a
0c
1f
e5
04
1a
fe
f8
08
02
ef
0c
17
fb
fe
fe
06
02
02
02
00
ff
fd
fe
e4
f0
06
f8
02
12
00
eb
f3
fa
07
02
e2
fc
00
e2
07
02
fe
05
11
0f
07
fa
fe
02
fb
01
fa
fa
f7
01
fd
e3
08
fc
f7
f2
01
fd
f1
06
06
0e
f0
eb
fd
0a
09
10
0a
fc
ff
e8
ef
21
25
09
04
f2
f8
ed
00
24
ec
02
fa
00
e5
e2
07
f1
0e
fe
fc
0a
09
f1
14
04
0f
fe
02
ea
05
f7
04
f7
00
f8
16
08
0f
f2
0c
00
05
f2
e2
f3
07
01
01
f4
f6
fc
06
e2
f0
fe
f4
e4
fc
07
e1
e3
05
f4
12
00
0e
f4
f9
01
07
fe
f1
00
f2
00
07
f3
f8
05
04
f3
01
03
11
1b
0d
ea
ea
fa
fc
07
f0
f7
dc
f3
04
13
fe
f3
0a
01
f5
f7
fd
ff
10
fa
ea
10
fb
08
f1
ec
14
14
35
1b
fd
e5
ec
f7
33
0b
02
01
ea
05
0e
03
ff
19
fe
00
02
f7
1e
fe
01
ff
0c
0b
f6
06
fa
02
02
f0
0d
ea
f1
f8
fe
ff
e0
09
01
0b
fa
00
fa
f5
06
f8
f9
fb
fc
04
08
0b
f1
f7
06
fc
08
fa
da
f5
ee
fb
ff
01
00
06
e2
02
ed
01
fe
fa
08
f9
10
fb
fb
fe
ff
f2
f7
f1
f1
f6
fe
03
f9
f7
f0
0b
ee
01
05
0d
11
05
fb
10
01
f5
e8
ea
fa
f6
08
ff
00
f4
e8
f1
07
01
01
01
fe
fe
00
fd
00
01
08
08
09
ee
fb
01
00
06
ec
d4
02
f0
02
ff
02
07
04
03
e9
ff
f6
ff
f4
09
03
ec
03
00
f5
f5
ed
ec
fe
04
00
00
04
01
01
00
00
11
0b
0d
f9
00
ff
fb
f0
08
f9
0c
04
ed
e8
07
03
f9
e7
06
f0
ff
f1
e4
e0
fc
02
12
0a
ec
08
e7
f1
ef
f8
10
15
f6
15
0c
0b
08
04
f1
e2
e2
eb
f2
03
fe
e9
01
05
06
03
01
fe
f8
ff
1e
27
17
fa
f6
00
e7
fe
1b
01
fb
f2
fe
f9
f4
ed
09
09
e7
f6
fa
25
ee
09
ff
de
f7
f0
04
ec
fc
06
fd
03
df
fe
04
f0
fb
00
fe
ff
08
01
16
00
fd
01
e8
02
0d
1f
fb
03
00
fc
13
1b
f1
f6
f7
fe
f9
f2
fd
00
06
ea
f5
e6
ea
0b
f4
e3
0c
02
0e
01
0b
14
23
e7
f4
fa
ea
e9
f3
00
05
f2
fa
fc
fb
e6
ec
0b
01
0e
08
07
f9
f0
f0
ff
1f
f2
db
06
05
fb
01
fa
22
f5
e3
05
14
02
1d
17
fb
ff
05
0c
12
f7
e4
ed
f6
12
01
fc
e5
0e
ff
e2
f2
04
fa
f7
f7
0d
06
ed
ff
00
01
0f
0f
ef
e6
01
fd
e5
fd
f7
f6
de
fa
01
f6
e6
f2
f6
f9
00
fe
07
02
0c
0d
eb
00
02
f7
0c
f7
ce
09
ff
00
02
e8
f7
fe
fb
fe
ec
f4
f4
19
05
ea
e7
da
f8
fc
1a
02
de
f9
f8
ec
0a
1d
f6
f7
f5
ea
db
e6
f7
06
e5
f3
fc
ec
e1
da
f4
0d
27
f2
02
09
03
0b
00
f5
f6
fd
fb
fb
04
0b
03
ff
15
1f
0e
ef
f7
f2
01
f7
1d
14
05
f8
08
03
f1
12
1b
18
f8
e9
f4
db
df
02
01
04
fe
fb
fb
01
f1
f3
09
1e
0e
f8
02
04
27
1b
f2
01
f7
05
f1
0c
06
fe
02
00
0e
14
f6
fe
01
fc
fa
0c
11
06
e7
e6
05
0d
e6
de
e4
f8
03
02
f5
f0
fe
f3
fe
0a
f8
e2
fc
fe
fd
fb
04
0d
05
fe
01
06
16
0d
fd
0a
f2
05
fc
05
11
00
15
e8
e2
f6
06
15
02
ee
16
19
01
08
f5
f9
fa
09
0c
ed
f2
ea
ff
f9
02
f4
f8
f4
fb
07
f6
eb
f9
fc
06
15
06
02
f7
09
09
0e
0e
00
05
fd
06
f9
1a
01
01
05
f4
18
fa
0d
01
fe
f7
fb
e2
f4
fa
ea
e8
e1
f0
02
dd
fd
eb
e1
f8
01
0c
f2
f8
e8
02
09
20
08
f1
f0
e4
01
fd
f5
f9
1e
06
ea
00
f4
fa
ed
fe
ff
f4
fe
01
0a
00
01
fb
01
fd
fc
18
1f
f7
d5
fe
02
0f
f7
e0
e2
03
fc
fe
f2
f8
fd
f1
06
02
fc
01
1f
0f
fb
f0
09
fe
fc
04
11
f9
05
fd
fe
f3
f3
f1
04
05
ff
fe
f7
f5
12
03
fe
fe
00
fe
0f
2a
08
01
fd
00
06
18
0b
13
f9
03
ff
e2
e6
e8
06
ff
00
00
dd
16
f3
ed
f2
fb
ff
00
1d
fe
0a
01
00
00
f6
03
ff
1a
12
ff
01
00
0e
10
ef
02
01
ff
ed
d8
ec
e7
dd
00
00
e1
dc
ef
ee
f2
fd
ff
eb
21
04
e2
ec
03
fc
02
fd
ea
01
f6
fe
01
df
e4
f7
ec
fd
ff
fe
ff
ff
00
01
00
f5
01
fc
fa
ed
f0
f8
02
fc
ec
f2
e7
ca
f4
01
f9
df
ed
f7
f0
f3
07
fb
04
1e
06
e1
02
09
f9
05
18
13
f5
ee
03
ff
de
dc
ed
fe
f8
02
00
f6
ff
06
fc
01
eb
ff
03
03
f7
eb
d0
fe
fd
0f
f8
02
e9
f8
01
01
f3
f1
07
ff
ef
ff
fc
04
24
ee
fc
f0
fd
fe
de
ef
ec
f2
ff
04
ff
f5
f2
01
09
ee
fc
fd
fe
e4
f1
f7
11
01
00
00
f9
f4
fc
f2
fe
ff
ff
07
0e
12
d9
f1
01
07
e6
e8
f1
e2
0a
ff
f8
04
0a
f8
f6
05
fd
e8
11
0b
f1
fe
ed
00
00
fb
06
0b
09
fb
fe
e6
e2
01
ef
04
00
f8
17
09
00
f2
0a
f9
fe
f3
0a
ef
de
f8
03
01
dc
d8
04
08
f2
fa
ee
fe
ff
e3
03
00
f5
05
f8
06
e5
19
fb
02
f7
fe
d7
f8
f6
00
05
01
fe
ef
f9
fa
f7
00
f8
fa
f2
e3
d9
e1
0f
ef
f9
e5
d8
db
04
02
f3
04
fa
db
15
fb
07
f3
e9
f6
fd
f1
fe
11
f5
f8
25
fe
06
07
f8
ec
fc
0f
da
fa
f1
01
fd
05
fb
ee
f6
03
fd
06
00
f8
01
f5
ec
f3
fc
0b
fc
05
e5
e4
f9
00
f1
cf
ef
fc
18
ef
f6
fb
13
0d
f0
ff
ff
09
fb
0d
f3
0f
13
0b
f9
ee
02
ed
03
1a
0d
00
e3
fd
e7
f6
ff
eb
fe
02
fe
01
01
ff
02
01
fe
fe
03
fe
00
01
ff
00
03
ff
01
fe
fe
02
00
fe
01
03
00
01
01
fe
01
00
00
ff
01
00
00
ff
03
00
02
00
ff
fe
00
ff
01
ff
01
fd
03
f4
ec
0a
10
fc
fb
f8
07
e5
ff
f3
04
ed
da
ea
fc
f4
f9
f3
e4
fc
0a
03
04
fe
04
f9
19
22
02
f6
04
0c
07
04
f3
03
fe
0c
fd
ff
fc
ea
03
05
05
fd
fd
f9
eb
08
f4
eb
00
0b
f7
f0
26
f4
ea
0c
0c
f9
ea
0f
fb
fa
fc
fd
f4
d4
1c
fc
f1
f4
0c
f2
0b
fd
09
f0
05
0e
fb
08
f3
f9
f8
0d
fe
01
02
eb
f6
fe
00
fe
18
12
0c
f5
f8
fd
f1
e9
0f
09
06
fa
ff
05
f5
0d
ff
0d
04
01
fa
e1
00
fd
fd
f8
f3
04
f2
18
f9
f8
05
02
fa
ec
05
f2
04
05
fd
fb
04
fd
fe
00
08
00
f3
08
14
0d
fc
e4
e5
fc
08
f3
f4
ee
e5
fa
f6
09
0e
07
fa
ea
f5
e6
ee
02
15
00
06
fd
03
da
d3
e5
0c
22
ed
fc
ed
f5
fb
0f
02
00
f9
fb
01
ff
01
f8
f3
fd
00
11
fd
f5
f9
fe
ff
ff
0a
0f
fd
df
e1
ff
f4
eb
f9
ea
10
ee
fd
fa
fd
05
f3
09
0e
03
f6
ed
0e
f3
ed
f3
09
09
fa
f9
f3
18
fa
f9
ff
fc
02
fe
f7
fd
fe
fc
ff
f6
f9
0d
ff
fe
ec
06
19
e8
05
f5
fd
fc
f9
05
ec
10
e2
f8
fd
e9
01
fd
eb
f3
ff
f8
0f
15
0a
0f
ed
02
07
f9
11
f5
00
01
fa
fa
f0
ec
fc
fe
00
02
02
03
02
0c
fb
fe
f7
02
fc
d0
d7
da
fc
fc
f6
ec
f9
0b
07
f9
f8
f7
f7
f6
fe
f9
0e
fc
01
0e
f2
02
f8
04
f2
0a
00
14
05
f8
00
f6
e9
07
0b
0a
04
fb
fe
fe
fb
01
fc
fd
ff
fb
fa
02
01
01
02
02
fc
fb
00
fd
00
01
01
fd
fc
01
fe
03
fe
00
fc
03
01
03
fd
00
03
fd
01
02
03
fb
fe
02
fc
02
fe
f9
fc
fb
04
fe
07
0e
02
fc
f6
fc
04
ed
02
1e
0f
0c
fd
f2
f2
fa
07
0c
fb
01
f6
e9
01
ed
fc
07
ea
f3
17
1f
f7
0c
f1
f6
03
19
f6
f1
05
06
fb
ea
fb
f8
fe
f5
fe
f7
00
ea
f1
e3
ef
fb
e6
fe
ec
16
fa
e2
fd
dc
fc
e3
e2
ea
e7
fe
d6
f5
d7
0e
00
f1
f3
da
f3
05
1d
00
06
e4
d9
04
03
04
ea
f6
e8
e1
fd
ef
de
f5
06
f4
ea
fd
01
00
fa
f3
ff
ff
00
e7
12
f9
1a
09
fd
01
f8
f3
11
f4
f8
00
00
e7
e5
f7
f8
e8
fb
fe
f2
f6
18
e7
fb
01
01
fa
02
ef
f8
fd
01
00
fc
07
f9
f6
e9
ff
ee
f8
f4
ea
ef
0d
03
00
0e
21
ff
d2
f5
fc
fc
02
e5
ea
f8
0c
09
fd
f5
14
f5
f7
12
0a
fa
12
1e
00
fc
02
f6
04
24
fd
e3
e4
0b
09
03
ee
e6
ed
f3
fc
e6
04
04
0f
f8
eb
e1
f1
f8
ec
f2
0b
06
df
ef
09
08
01
fa
f4
ed
f7
f5
f2
df
f6
fa
f4
fe
fc
ec
e7
eb
19
02
03
0c
16
fe
0a
fa
fb
fa
0e
e6
0d
08
00
0b
14
f7
00
0b
fa
e5
f9
f7
fd
00
ef
05
fa
f3
de
fa
08
f3
04
f9
f8
03
f2
e3
e5
04
fd
f9
05
f7
e9
f4
fe
0b
11
1d
1e
fe
0d
0c
10
13
ef
03
ff
ea
eb
f8
fa
ec
00
fd
f8
fe
df
01
fe
01
e5
0c
f7
d9
fb
04
fd
d8
f8
f8
f3
ef
02
fa
d7
02
08
f8
07
01
f9
ea
18
ff
00
04
06
fe
e5
f2
eb
f3
f2
08
01
fb
f8
fd
06
fc
fd
07
14
0a
0c
13
0e
06
f9
f9
07
05
06
01
fc
03
f4
fc
01
06
f0
fe
f6
f7
ff
f9
f4
06
fb
fe
fe
fa
e3
f8
06
05
09
08
05
0a
06
0e
ed
ff
fe
06
01
f3
00
01
00
fb
0b
09
01
fc
02
ff
ef
fc
ea
ec
e5
02
fb
f3
f0
f7
15
04
01
fe
eb
16
00
f5
00
02
f7
e2
04
00
03
fb
00
00
03
02
fd
ed
02
ff
ff
f6
ea
00
f9
08
03
04
ff
0d
0e
fd
f6
00
fd
e7
ec
e7
11
de
f9
fd
f1
f7
ea
ff
f5
0c
fe
ed
04
00
f1
ff
02
01
f5
0e
f7
eb
01
06
fe
05
fa
e8
03
e8
03
fe
fe
fa
07
fb
fe
00
01
00
04
f4
f4
f9
f7
01
0d
ef
fb
d3
de
fd
fb
f1
d9
e3
03
09
fe
f5
f8
1b
09
f4
f9
06
09
10
10
09
03
03
07
fe
fa
11
04
05
ec
ff
f9
fd
ee
d2
03
0d
f6
fd
04
28
17
0a
fa
fb
00
e3
11
10
05
de
e2
01
fa
10
1c
fe
f4
f9
04
f2
fd
07
f6
06
f9
06
eb
f5
00
f1
f9
e9
03
0a
0c
fc
11
15
16
de
fd
f8
f9
e6
07
f0
fc
fb
f1
e1
de
df
f9
09
fd
16
fc
01
f7
e7
f4
03
f3
f0
00
11
fc
fc
06
e4
fc
09
05
f3
fb
f2
f7
f4
e8
ff
17
e6
fb
f9
0c
00
05
02
ff
f7
f9
e7
fa
fa
fb
01
01
fd
01
ff
00
ff
fd
ff
01
01
00
01
01
00
ff
00
01
01
00
01
01
ff
ff
fe
02
02
fe
01
fe
01
01
ff
00
ff
01
fe
00
00
01
01
ff
02
02
01
00
ff
01
00
fc
ff
0c
15
f9
fa
ef
f4
f8
03
06
fa
ee
ec
f8
ef
f7
f9
ef
12
02
ff
f3
05
fb
f4
f4
08
fe
d9
e4
11
12
09
f9
09
02
0c
fb
ff
1d
2c
ef
f7
01
12
ff
fc
f2
f4
02
f7
f0
ed
de
0c
e8
f7
ff
fe
ed
fb
f1
ed
1d
f0
eb
10
fd
12
eb
01
f9
15
f9
f3
fb
f2
00
f3
f7
eb
01
ec
ef
01
07
ef
f5
ff
f7
00
f1
e0
dc
fa
f4
02
fe
0c
13
23
12
fc
03
0c
fc
14
14
03
09
db
f8
ec
d7
07
f6
09
f6
f6
10
10
f3
03
f8
05
06
ea
03
f3
00
01
1e
02
07
f6
f8
11
0f
fd
f4
08
ee
13
06
03
ff
00
01
24
0a
09
ec
0c
01
0d
06
eb
f2
24
fd
02
11
fb
f9
04
08
03
fc
03
12
ed
d0
10
fd
00
0a
d3
00
fa
01
e0
04
0c
02
0a
07
f1
ff
fc
04
1b
03
07
0f
fe
01
fa
fe
03
02
01
00
fc
f0
f2
12
15
16
f8
fa
f7
f6
11
00
21
14
f7
e6
f7
06
e7
f7
0e
08
02
e6
08
01
e0
fc
03
13
0b
23
2a
07
04
01
fd
3d
07
fd
f4
04
fe
fe
f7
03
00
fe
f4
fb
f0
31
fe
06
f2
01
10
13
f5
1e
fe
0c
02
02
ff
11
fc
08
06
04
fb
0c
ec
ff
e5
15
02
02
f8
07
14
0e
1b
01
00
fc
0e
02
ef
df
fe
09
03
0b
24
12
01
0f
fe
13
f8
fd
06
0c
0e
f3
f5
fe
12
dd
df
0e
f9
0a
df
d8
e1
f9
fe
10
fd
df
cc
ec
13
02
0e
e3
d5
bf
f5
06
0e
15
03
05
1e
1f
1c
0a
fd
0f
f3
f3
fd
fd
01
05
13
20
31
f4
fb
ff
f1
07
df
03
fd
f9
02
03
fa
f8
cb
15
eb
0a
fa
fc
f3
e2
ba
ed
eb
02
ea
d4
ea
01
08
04
00
f9
04
14
12
0f
04
f9
00
ff
fe
f5
fe
fe
00
13
1c
d8
08
16
09
fd
34
fd
e3
f3
15
05
fc
09
19
05
0e
24
0c
05
02
07
0d
fb
fc
04
04
f9
1f
ef
00
f2
00
10
02
0c
f2
05
1c
ff
00
0e
26
09
ff
f0
f6
fb
03
08
f8
fa
05
17
00
0c
1d
0c
de
df
06
02
0e
0e
e9
a4
fe
06
00
ea
fd
05
00
14
fc
04
e0
fe
0e
25
2d
0f
12
0d
1c
15
09
1a
18
ee
ff
26
e3
00
09
f9
da
dd
19
f7
16
07
fd
f7
04
08
3a
1d
19
fe
14
ed
20
08
03
f6
f8
14
fd
f0
f3
eb
ed
f7
00
f1
09
15
ed
06
f6
fd
0c
00
ed
f3
e8
fe
03
00
fd
fb
fe
ff
ff
06
0c
06
f2
0d
f6
f4
f9
fe
0d
1e
fd
1e
0e
0b
f4
f2
e4
e8
05
0c
00
f9
e6
e7
f8
ee
0d
01
14
12
31
02
28
08
ff
ff
1e
fd
1d
ff
00
fe
f7
00
1b
fa
f8
01
02
f2
16
0b
03
0b
fa
fd
f4
00
32
15
08
fb
13
f7
f7
1c
fa
01
0b
fb
03
01
08
f5
07
14
00
08
0b
09
05
ea
fa
00
07
f4
f2
08
f2
fb
00
e2
d1
23
ff
fb
06
eb
fa
e5
19
16
ee
0b
18
f2
f0
f2
11
09
12
19
fe
f5
05
15
16
0f
f4
0a
fa
f6
de
f7
06
ff
1d
2e
1b
f8
ed
06
00
f8
fc
e0
0e
01
04
fc
ed
e6
0b
07
e5
f5
e9
dd
ea
f9
0d
07
01
f3
fb
f8
0c
1b
20
01
02
fa
03
19
14
08
00
eb
04
04
ed
f7
10
00
ec
07
08
fb
f2
0c
f0
e5
04
0d
df
d1
d4
f8
fe
f5
f3
e8
ee
fe
fe
00
0c
f7
11
16
16
08
02
0b
0b
da
f8
12
13
00
0e
00
15
07
0b
fe
ff
fa
02
03
f1
0e
fe
01
ff
10
00
28
02
02
ff
f0
ec
fe
03
ea
00
fd
e0
00
f9
f2
e4
ea
ef
f8
27
07
0d
08
0c
fc
f5
f4
cc
f1
fc
ec
ff
10
e3
0a
dc
ed
f3
ff
e3
ee
01
24
27
0c
f6
e8
00
eb
0b
0b
07
05
07
17
d8
de
fd
fa
01
0a
0b
e5
08
01
01
fe
04
f5
f5
d3
02
00
02
0d
fe
ca
f1
21
24
fe
17
15
06
2c
3d
01
06
ef
03
0a
ff
1c
fe
00
03
0f
ee
da
0e
14
02
08
f4
de
03
ee
03
ec
1b
09
0c
ff
ec
24
fc
0a
13
fd
f4
13
22
0a
2f
ed
dd
f4
0c
e8
19
d6
cc
be
c7
f7
ec
f8
c4
fe
01
22
f1
e5
08
d7
b1
fa
0a
36
f7
09
e6
ff
1c
f5
24
18
00
fd
03
07
00
fc
ff
ff
05
e5
f0
14
0d
06
00
0e
00
ea
0b
29
05
fd
02
0f
08
0e
15
06
fd
0f
19
02
09
f2
fd
03
20
3b
e2
e3
f9
ff
0f
f5
fd
f0
03
01
01
fe
fd
03
dd
05
f8
06
01
02
0a
05
00
fc
04
00
f4
07
19
0e
fa
f9
fe
ea
fb
ed
d9
03
f0
ff
04
02
fc
ee
f4
fb
fe
0b
04
f2
10
10
05
00
f2
f3
0c
f7
0a
00
00
ff
fd
fb
fd
fd
fd
fd
1a
e0
f3
09
ec
fc
f3
06
17
02
13
19
05
08
01
10
fa
bb
1c
df
05
04
f8
e9
f9
f9
1b
0c
09
26
23
1a
14
14
fe
fd
09
06
05
01
02
fe
23
03
05
0f
14
0c
ed
22
02
fd
f7
08
fd
05
0c
f8
02
1e
0d
01
1f
f1
d2
b5
fe
22
f9
1f
f7
dc
cc
ff
fd
f5
1a
f5
e5
08
15
00
0a
fd
f4
f3
0b
11
21
03
fc
fa
fa
03
f8
fe
ff
f9
e8
fc
16
f4
f1
dd
fe
13
f8
e1
07
15
03
0b
01
02
1f
f9
00
e7
09
01
0d
f6
f4
08
07
09
0c
f0
f2
e5
fb
17
0a
ff
01
ec
f4
e0
ff
01
01
02
ef
fe
fe
fe
f4
e9
03
0f
fd
02
e7
fa
f7
f9
2d
fd
e6
0d
03
04
07
12
ef
f5
f5
f7
ff
16
15
e1
0c
10
fe
fb
f9
15
17
04
fb
01
01
ff
ff
fc
e4
06
e9
fb
dc
03
05
fe
1b
ff
20
0c
fe
e7
ee
22
e9
0c
31
e9
fc
25
0a
fc
0d
0e
03
0d
0e
05
03
08
e2
25
f0
0f
ec
16
0e
06
07
23
0c
0c
fa
e1
f1
08
07
e7
fd
f7
f1
e8
0c
ef
ec
00
02
ee
19
07
f6
01
fa
ff
fd
0c
d1
e4
fe
0f
fe
fb
15
27
05
18
f8
00
07
10
02
14
eb
f8
05
0d
01
f0
f9
00
06
06
04
fa
13
eb
ea
ff
00
f3
02
f7
08
ea
fb
ed
f9
0d
2c
de
03
13
08
02
f1
1f
d4
dd
04
1c
09
ee
0b
14
f3
0f
17
ee
c6
fc
fd
11
fc
18
f0
e6
08
03
03
02
fe
19
18
1a
00
09
0a
f5
02
13
e7
f6
f9
f9
f5
e0
2c
fb
fc
fc
fa
0d
f9
11
34
03
1a
f5
15
03
f8
16
08
fe
08
0c
ff
eb
f9
d8
16
07
0b
fb
0b
17
06
0d
ff
fe
20
01
ff
ed
0a
fa
04
05
01
fe
f4
06
04
f4
19
f8
06
fe
f7
06
f7
f0
00
ea
db
22
23
06
01
ff
c8
de
06
15
fd
d2
eb
ce
ee
0f
0d
fc
f0
03
e7
f9
14
1e
0a
0a
13
0d
2b
0e
ff
00
01
ef
02
f2
f8
12
f4
ed
0b
07
ed
f1
09
ed
09
2d
fa
04
01
fd
01
fd
30
ef
03
ee
05
28
0a
03
e4
ea
0d
df
0a
0d
f1
ff
f0
01
01
fc
12
fd
ef
22
1f
01
fc
f0
e3
fd
f7
fd
0a
f6
f1
ea
d4
0b
19
e8
09
ff
02
f8
34
3c
ec
07
0d
ff
f1
48
fe
ea
0f
f5
20
d6
0a
ef
eb
0b
ff
21
f1
fd
f9
ee
fe
f1
0b
f8
d9
04
f4
00
fd
0b
fa
f3
fd
fe
00
07
1e
f3
13
0c
f6
fd
18
03
09
f4
2a
11
01
f9
10
f8
e6
09
ff
00
16
f7
f9
0c
04
fd
02
12
10
05
08
18
04
ff
01
eb
f4
f8
fd
00
ff
ea
f6
fe
f4
ff
00
00
f4
f4
10
f6
09
03
fd
02
0c
12
10
26
0e
00
03
fb
fe
20
f8
0f
ff
05
02
ee
cc
f3
0b
01
17
f2
25
ec
f0
f2
fe
08
fb
0b
ef
ed
01
01
01
02
f3
ed
00
ff
01
0a
0e
0f
f6
fa
0b
04
00
0a
e5
ec
f7
fd
01
14
ea
db
de
fe
fa
fc
e7
09
10
2e
f3
03
fe
e2
02
11
ca
03
02
ff
fe
fd
fa
fd
fe
0f
01
04
e9
f3
fc
0a
00
f5
fd
0d
0a
05
1b
16
f8
fe
0b
ca
f4
01
07
02
10
0b
01
0d
14
01
00
fa
24
00
19
ec
05
03
0f
ff
f4
00
f9
07
ff
fd
ec
ec
f4
ff
fb
ff
f0
12
f3
10
f6
fd
00
0e
f5
f0
f5
2e
15
fb
09
07
02
19
21
f9
fd
1f
09
18
f4
12
01
00
ef
01
11
eb
14
02
0c
1c
f7
05
f6
f5
00
ff
10
09
03
10
07
01
fe
02
f0
d2
f1
07
00
00
09
1f
02
f5
16
f9
03
0f
f4
07
00
1e
01
f0
22
10
f1
00
03
0f
ff
10
eb
e6
0d
0d
fe
0c
09
0b
ff
27
10
0e
00
df
ed
fd
0b
1a
ff
ef
0a
fa
f5
05
f6
0d
fe
fa
0c
ec
18
11
fe
fe
1f
f7
db
20
14
f0
29
0d
ed
f0
14
fd
02
0b
c5
1b
df
26
fb
09
fa
14
e5
ed
f3
0e
15
fe
02
f1
03
0d
f5
03
fd
f0
f4
f9
f7
ed
f1
10
e9
e9
f8
05
ec
06
0a
24
06
d6
fd
1a
0c
0d
17
1a
f3
0b
0d
f8
0a
ff
0a
10
fd
02
03
0f
18
13
e9
00
18
01
06
09
f7
ec
0a
03
02
0c
f2
fe
ff
f3
fb
15
00
12
0d
08
13
2b
11
f6
16
11
db
f3
23
01
0e
f6
00
f0
ea
06
f8
0d
ff
0c
fe
1b
ee
fb
0d
0d
f7
fa
22
04
0e
04
0d
f9
03
e3
00
02
f8
f8
f9
f8
fa
fc
f8
fa
f8
f8
fb
fa
f6
f8
fb
f8
fa
fb
f7
f8
fa
fa
fa
fc
fe
f9
fc
fb
fc
fb
fc
fc
f7
fa
fa
fc
00
fa
fb
f7
fa
fb
f9
f9
f9
fd
fc
fb
fa
fa
fb
e5
fb
11
f8
fd
ef
f5
f3
dc
10
0e
01
00
05
f4
f2
24
16
fb
01
1a
e6
f2
34
06
fb
0c
01
2b
e1
03
1c
f4
0e
0b
1c
e5
fc
f1
f1
00
ec
f5
fc
f8
06
fb
02
f9
f7
fd
01
ef
01
f7
f4
e5
e0
ee
01
1d
f5
04
fe
0f
20
1f
00
03
18
fc
0d
ef
0f
f2
f6
27
19
21
f4
15
ed
f5
10
1a
e4
f1
fb
11
ff
02
fe
d3
de
cc
02
f9
05
05
e8
f5
03
fa
fb
c1
16
f8
17
00
fd
0e
0a
0b
2d
01
11
08
12
f4
0e
09
07
e3
07
0b
f5
f5
fe
ef
12
f8
08
f2
0a
1f
f1
03
01
e9
19
fa
ff
ef
f7
01
1c
0c
fe
10
fe
f3
f7
ff
04
08
0f
f8
fc
1c
0e
0d
06
fa
b6
e4
f8
02
02
c8
d5
b3
f3
e7
1d
d0
c7
ec
26
0a
fd
f5
de
f6
e1
1a
0b
00
12
04
0d
21
00
07
16
00
02
11
fd
f8
fa
fe
f7
00
f5
0a
08
08
fe
02
1a
11
f3
da
05
15
08
1c
19
e5
e2
f1
12
ff
07
e9
07
ec
09
04
08
fa
0c
ff
f9
0d
05
03
fa
29
fe
0e
04
07
00
02
f8
00
e4
f2
fd
00
f7
04
fc
ef
05
17
fb
27
16
fe
e9
21
1d
1d
13
0e
1d
1b
18
06
10
18
f5
17
ed
fc
e4
0a
24
2c
19
0a
e5
09
fd
fc
15
13
f4
fc
01
00
01
03
05
f6
01
ff
fa
fd
f6
06
11
05
06
0e
1b
05
f9
00
16
06
ff
18
00
fb
dd
0c
fc
05
ff
f3
06
01
f3
fb
ff
1e
00
12
17
f9
06
f9
13
f4
08
02
fb
00
01
ff
00
fb
fd
ff
01
fe
fe
02
03
02
06
03
ff
03
0a
05
02
01
09
fe
06
08
ff
02
04
07
fd
07
fd
03
03
08
05
fa
0b
0a
fb
f8
fa
04
fe
04
02
02
01
fa
03
fb
ec
0d
25
f8
07
f8
ff
ef
e7
e6
0d
02
06
0a
03
f8
01
1e
28
f9
0a
07
01
fa
0d
05
f6
10
0a
09
00
ef
f7
0b
ff
1c
07
2e
f6
f1
ef
06
05
f7
f1
f2
eb
f5
01
f0
d7
16
27
f1
0b
ec
02
f6
f1
1d
12
07
02
00
fc
c6
10
1e
0f
14
02
06
f7
14
14
0d
ff
fc
26
09
01
06
0e
0f
20
2e
ea
fe
fa
0b
ff
ff
e8
e6
11
12
09
01
00
fc
01
f8
fd
01
01
f9
fc
fa
22
0a
fb
00
0e
12
17
ea
f5
01
00
f9
07
03
17
0a
fe
fd
08
f2
09
db
02
fd
ff
14
f3
16
f8
f3
01
fd
fc
05
f0
0f
f4
ff
01
e0
fd
f4
f2
e1
0b
fa
12
13
0b
fd
fe
1c
fe
03
15
de
08
1b
fc
ef
00
f9
ff
0b
15
0c
f9
05
11
08
08
12
f8
04
15
32
de
16
fe
fe
00
02
de
fe
1c
17
fb
0f
18
0f
12
fc
0e
0f
fb
13
0d
1c
08
05
09
03
f7
f4
de
ec
e8
0b
d6
f3
cd
ba
de
de
0a
03
01
c9
da
d5
e0
da
19
d6
b8
e3
0f
04
1f
0e
f8
0e
17
19
11
0f
fb
16
09
11
10
f8
2a
f5
28
0d
0c
04
f7
16
e6
0e
e1
e5
fe
07
12
02
f3
e8
c3
ed
01
f3
19
e8
cc
cb
e7
05
09
13
01
da
fb
10
01
16
ee
03
03
0e
21
1f
1d
00
f7
d7
12
fe
04
fe
fb
f4
e3
00
0b
fe
f5
f8
fb
08
d1
00
00
f5
11
08
ff
fb
00
08
fe
fb
05
fd
ec
f4
00
02
00
0b
0e
05
de
e2
01
01
f6
f1
f2
05
f8
08
0e
14
16
0b
12
19
00
f9
f9
f6
09
dd
e6
f9
f3
07
fd
f3
00
00
18
02
2a
f4
c9
dc
0b
09
1f
01
e6
dc
e8
02
ee
ff
f1
e7
fa
10
f9
08
00
13
0f
06
20
0a
0d
ff
f6
17
f6
16
fd
ff
00
05
f6
19
0a
07
00
f9
02
ee
cd
f2
17
00
fe
1d
10
19
f0
f2
04
04
06
1a
f5
10
01
01
03
14
f4
e2
02
f8
01
01
01
08
02
04
10
ff
04
fd
06
f6
02
fc
00
fa
fd
f1
f9
f7
0d
09
fe
f0
00
e2
12
1f
07
fd
03
03
ea
07
f2
06
ff
11
1a
f4
03
ff
07
00
00
f4
e2
0e
fb
01
ff
02
ff
fe
09
ec
01
ff
eb
05
07
05
ef
0c
fa
29
0b
ee
01
0e
f7
f0
18
0f
d0
fa
2b
02
fc
11
f5
e8
06
1b
f9
11
fb
17
07
15
03
ef
1c
00
02
18
17
f3
02
f6
f6
e0
f0
f1
17
0c
07
e9
0b
0e
09
e3
fc
14
f6
00
14
f5
04
ef
15
05
0c
16
ff
f4
15
1c
18
25
16
fd
fd
fa
1a
00
11
0b
15
07
11
11
02
00
06
05
04
05
d8
fa
05
c7
ea
d6
fa
09
fa
07
01
05
f0
03
05
09
0f
0d
ed
f0
0e
ff
10
fa
05
f7
01
07
fd
02
fb
e3
12
f6
06
01
02
0b
f9
db
f6
0b
0c
f1
d9
fb
1e
0d
f9
0d
fa
ed
f5
f8
17
fe
fe
ff
ff
ff
fe
fe
01
fd
00
ff
ff
00
fe
01
ff
fe
00
01
02
03
02
fe
ff
01
02
00
02
02
01
00
03
fe
02
00
02
ff
00
00
03
02
00
00
01
00
ff
02
00
02
01
fd
12
21
04
f8
f2
01
fb
fc
06
fe
fc
09
17
0d
0e
05
cf
c4
da
08
fa
f5
19
df
d0
f8
17
f4
fd
fd
04
06
0d
f8
05
cb
ea
fb
fa
f8
16
21
17
01
e3
ff
19
e7
0b
04
0f
0d
02
f9
09
0d
11
f2
08
fa
da
1f
11
1b
0d
e7
f8
f7
1b
0e
00
ff
01
f8
fe
f3
0f
0e
0d
f8
f8
05
ee
11
04
e5
0c
18
22
1c
03
01
fb
d2
f8
e9
00
fe
05
1c
f3
fe
fe
fa
f2
f2
0d
f7
01
ec
02
fa
1b
11
1b
f8
f6
0b
1d
fb
18
d2
f7
ea
fb
e0
f2
f1
f6
e8
28
19
09
f1
fc
f8
02
00
ff
e6
05
0f
05
2d
00
04
01
ff
02
02
03
fc
f9
01
04
13
fd
10
10
f3
02
02
fe
19
25
11
ea
05
1b
fb
13
0b
16
e6
fb
ee
ec
0b
e6
ea
fd
ff
f6
0b
06
14
e3
16
01
fd
fc
e6
e6
07
ff
03
fe
ff
06
06
fe
01
ff
f4
da
06
06
f4
00
09
fc
f2
22
32
21
fc
08
00
02
11
18
fc
fc
fc
e1
dd
ed
e5
ed
fc
fd
ea
0b
f0
eb
09
0b
08
ff
10
05
f5
10
03
03
00
fd
f6
fd
fd
05
fc
f3
f9
12
03
12
f9
fc
f0
15
fa
10
e9
01
06
16
19
07
10
10
01
f3
e9
fd
f8
e9
fb
01
f5
fa
f6
d8
0b
f3
fb
00
05
17
fa
fe
00
03
09
fe
fd
0d
0e
04
18
04
0f
f9
02
fc
f5
ef
00
ec
0f
eb
e8
ed
08
fb
eb
e6
e9
da
f7
eb
dc
e9
f0
02
29
20
fc
0f
03
f3
e1
d0
07
00
fb
04
13
09
fd
01
17
11
07
fd
f8
fb
01
0a
01
ff
1d
f6
02
c6
04
0b
ff
da
fb
e4
e2
f0
f7
eb
cd
f0
24
fb
01
05
d0
f8
27
ff
e5
dd
08
22
ef
f1
f7
18
ff
fd
02
15
0c
f4
ee
10
fa
00
fd
08
fd
f8
ff
00
10
ee
eb
f1
0b
fd
fc
1c
05
fb
fd
1a
04
f3
f9
fd
fc
08
fd
0f
ff
0e
1f
05
fc
08
0c
04
09
07
01
16
08
f2
fb
df
07
ee
ec
f9
fe
01
f6
0d
10
f9
fa
09
01
f0
16
0d
0c
f9
05
f4
f4
f8
f8
d0
e4
f1
fe
e4
02
f3
04
02
e4
f8
08
ee
f0
ec
04
0c
fd
20
0d
f7
fe
14
00
f9
f8
09
00
0b
ff
fa
fe
ff
22
00
ea
fe
f3
fb
f8
01
f7
0f
1d
f9
f3
0a
0b
10
f8
e7
fc
20
18
23
20
f1
08
f9
f5
f2
07
ec
ff
fd
fc
e6
0c
fd
ea
0c
16
fc
ff
00
e8
f9
04
08
ff
ff
ff
00
fc
fc
fd
01
fd
fa
f4
ed
f6
01
fe
f3
e8
fc
14
f3
f0
02
05
0d
2e
26
1a
1b
05
d5
02
05
fd
fe
eb
f7
06
fb
f9
fa
f9
f7
ff
03
fe
0f
e9
f1
fd
01
00
fc
f9
08
f8
09
06
f8
e0
e7
0e
08
19
01
02
fd
13
23
fa
18
f0
14
25
16
0c
fe
03
fe
f8
f3
f6
1c
f9
01
f4
fa
f9
fb
e3
f9
f0
12
fd
06
f9
1c
fa
23
fc
fe
fe
ef
0b
fe
0d
04
f9
e6
ec
ee
0b
02
fd
fa
fb
0e
f7
02
0b
0d
20
04
01
fa
0f
21
02
ef
02
13
fb
ea
0f
fe
fa
fc
0f
00
0d
17
fe
01
fd
fb
09
f6
f3
ff
fa
f1
ec
fb
17
fe
f6
d9
d8
df
d6
06
f1
03
e3
e8
fa
29
01
24
0a
f5
fc
eb
fd
05
10
ee
e1
d9
e8
f7
f5
0a
18
dd
e8
f4
fa
14
0c
fc
e9
08
10
f3
13
20
13
ff
fe
f4
ea
f6
08
00
01
fc
eb
19
22
ff
fe
fd
09
02
f4
ee
0b
04
08
0b
04
fe
ff
15
fb
fa
1b
0a
da
11
ec
f3
ec
1d
1c
f2
f4
0d
fd
00
0d
ff
ff
f8
e6
00
05
fe
df
f6
09
fe
01
ee
ec
00
ff
24
1b
fb
e9
e3
de
c6
cf
ec
f4
02
f5
f8
d0
af
cb
f7
fd
de
e4
e0
f5
05
fc
17
fe
06
0f
06
22
13
fb
13
f6
1c
03
01
0b
f8
fe
f8
fc
e8
e4
02
00
ef
f1
f6
f1
08
f7
ff
0c
f4
de
f0
11
08
00
12
09
08
f6
0f
f8
fd
dd
1c
1f
f7
10
09
f7
23
14
16
f7
10
f9
00
fc
0d
02
fb
0b
e8
f5
ee
fc
20
fc
fe
fd
ec
0a
17
ff
07
c7
fb
fc
e6
ed
dc
07
ef
f1
b7
e2
f5
cd
fb
fa
f5
ff
f2
ef
09
16
04
0e
1d
0d
f4
fe
e9
f6
f0
17
07
f7
f0
eb
08
09
ff
f6
f1
fd
f9
f8
fe
00
fd
db
02
ea
0c
ff
fc
25
06
06
0a
07
03
07
fa
02
0f
19
02
f9
f9
20
26
01
00
fd
06
fa
e7
10
f3
f6
ff
08
0f
ef
05
f5
fb
07
ff
03
ff
06
f3
0d
f2
00
03
f7
d6
06
01
19
fb
ff
db
db
2f
05
fa
f1
01
0a
ff
30
fb
f5
08
ff
f1
ed
0a
12
05
e9
00
f2
02
db
f5
e7
02
00
e9
ef
06
d4
06
02
02
fe
ff
fc
fd
fb
fd
01
05
d2
fc
05
05
f7
fd
f1
fb
f7
1c
fb
0d
fd
0e
05
25
1b
0f
02
01
f5
2b
eb
f3
f5
fb
fd
fe
01
eb
ff
f2
f7
02
0a
00
fe
03
13
02
03
ff
07
f6
f9
ff
09
0a
08
07
fb
f5
02
00
f3
e2
e8
00
06
f4
fe
ef
db
cd
28
34
2a
08
ea
f3
ee
f9
fd
06
fb
14
16
04
fc
09
16
21
db
f4
05
09
e2
0d
ff
ec
fe
fe
f5
01
f8
02
00
f7
00
15
ff
e6
0c
fe
09
e5
ee
15
1f
2c
fb
fb
f2
0a
09
fc
06
ea
fa
15
08
fb
08
09
f3
fb
1d
bd
d0
11
00
f8
fa
17
03
03
1d
f3
ff
ff
f6
00
e9
01
ff
03
0a
ed
f7
19
21
09
ff
ef
1c
2b
19
1c
e9
fa
2a
25
0d
e2
eb
fa
f2
f2
f1
fe
de
03
0a
03
0b
01
f8
03
0f
19
f3
f6
d4
0a
dd
13
01
06
ef
db
00
16
e0
fa
fc
f5
fd
fc
ea
f0
f0
f9
1f
1a
0a
04
01
d7
ff
f2
23
ef
ed
14
e1
f8
14
0c
f8
f1
06
18
05
0d
e5
f1
e6
0a
03
f1
f3
ff
f1
e5
df
fd
f1
04
f5
06
f7
fd
fe
fd
f6
03
fd
20
0b
02
fe
13
18
fc
f6
f6
02
00
09
03
0d
11
11
14
ff
18
17
0f
f7
22
04
ff
f2
0b
f2
03
ee
07
02
fe
02
1e
f2
f0
f8
05
0d
03
ea
f9
10
0a
08
e9
e9
fc
04
16
1b
03
01
e9
00
db
eb
f7
f0
fe
2f
f9
d9
eb
f9
f7
04
f5
f7
fb
f5
0c
0d
0f
05
06
05
2f
06
e2
ff
06
f5
0c
14
11
f8
0a
0b
e7
fd
08
ff
e0
eb
07
f0
18
fe
05
f8
f2
15
02
17
fa
0c
e9
0d
23
e3
f8
dd
e8
eb
fa
15
dc
e5
0e
09
fe
fe
0a
ef
18
07
fd
ff
17
e5
e9
10
0a
07
04
02
00
fd
e3
05
02
06
f4
15
fb
f1
e0
f0
00
0a
17
d2
0c
0c
03
08
ef
02
e0
00
07
03
f9
f2
fe
0a
01
fa
f3
f6
01
0c
05
0c
03
f1
fe
12
18
11
11
fc
ff
01
fd
fb
f1
dc
08
fb
f7
cd
ec
12
fa
17
12
e5
f3
f2
05
15
e2
ec
fa
0b
2d
ed
ed
e7
1f
ee
0a
16
f9
04
06
ee
de
1e
10
ee
f7
f1
0d
ea
f3
10
f1
04
1e
04
fe
ec
24
04
03
02
0a
d3
f8
05
db
02
00
09
02
12
1b
ee
10
1d
12
00
09
fd
fe
0c
08
0f
f1
09
03
f3
e7
f9
0a
0d
fe
05
01
19
f2
10
02
12
1b
00
29
ec
0d
00
fc
00
f3
e3
09
00
ff
06
ff
ff
f9
fa
f7
01
08
04
08
f2
04
05
01
f3
ef
f7
02
ee
08
fd
1b
2a
06
d6
ef
01
02
17
1e
f6
ed
10
fe
fd
ef
fe
0f
e4
ff
00
01
05
01
0c
fa
03
fd
fe
f6
ee
e1
f3
f2
fd
00
04
f8
f9
f9
16
00
00
10
08
fd
05
11
12
fd
e7
f8
03
f1
f3
08
01
00
02
f4
0a
17
fc
fe
0d
24
0a
0c
0e
03
ff
00
ef
fe
e6
05
01
fe
f5
fd
11
00
de
0d
fe
e7
03
fb
00
f6
03
0e
0b
01
fa
00
fa
02
f9
ff
16
fe
f1
e4
ff
fe
ed
06
fb
cd
f2
01
02
03
00
14
09
fe
fd
01
fc
eb
0c
fe
01
fe
f4
f3
f7
0a
fa
d9
09
fb
ff
f8
cb
ef
df
04
12
15
fe
f4
20
fc
f8
ea
14
0a
0f
e5
f7
ff
01
f4
0f
00
f1
fd
01
04
00
0a
06
16
fb
06
01
fc
fe
f2
1c
f1
fc
02
02
f8
f4
d6
08
16
02
f4
eb
07
07
1c
f1
fe
1e
02
2e
f6
01
ff
01
18
03
fb
0a
0f
1c
07
d8
e6
06
15
fb
04
02
06
09
fb
da
23
00
ff
ff
00
e2
c8
ed
04
ff
f0
00
f9
fb
01
f9
f5
19
f5
05
0f
fc
df
0a
0d
04
e0
0d
1c
f5
fb
09
2e
f6
05
f1
f3
08
0b
f4
f5
f2
0d
00
fd
0e
ef
01
f0
07
fd
02
f3
23
19
f7
00
fd
e0
0d
0b
f4
fb
f7
06
fa
0e
08
f4
f8
21
00
e6
03
e5
cf
0a
e6
fa
fe
18
e4
17
f8
1a
fd
0f
0c
f0
17
19
03
08
04
f3
fc
0f
ed
0b
01
f8
ff
f2
0e
12
e9
02
09
e2
d6
01
0a
f2
f8
06
28
fc
01
04
0f
07
0e
fc
f7
10
f8
12
00
0a
f1
13
f8
f0
06
21
07
00
14
f4
fc
08
f7
1a
1d
06
e6
01
2a
07
ff
f7
e9
ee
1e
d2
ec
f7
f1
0f
18
f3
ec
f7
e5
16
03
e0
fe
ee
f1
17
e2
0d
ef
fe
12
f1
f9
03
1a
04
16
00
f5
05
f7
ee
f5
07
fc
03
0c
05
06
dd
f4
f8
f1
fe
fb
fb
fc
fd
fc
00
fd
fd
fe
fb
fc
f9
fd
00
02
fd
fe
fc
ff
fe
01
fb
00
fe
ff
fe
00
ff
fe
fe
fd
fc
fb
fc
ff
fd
fa
fb
fe
fb
fb
ff
fd
fe
ff
00
ff
fe
fe
ef
17
f8
10
09
0b
f0
f6
0e
e2
27
f5
fe
08
09
02
fc
02
01
f1
0e
02
fd
f3
04
0b
fa
eb
21
10
f6
ee
1d
05
f0
07
05
03
28
f4
00
02
f8
2a
09
f6
e8
fb
ef
f7
f7
0d
12
e2
f9
ed
fd
ca
f2
e6
12
06
ec
ee
f4
e8
fe
17
11
e9
e1
e8
eb
ee
05
fa
f0
ef
ec
f6
f8
16
ff
ec
fa
ed
ea
f9
fd
15
00
fd
ff
f1
fb
0e
fd
fd
fa
1e
ef
e7
fe
f3
eb
e0
f6
ee
0a
26
01
dc
fb
23
1c
1b
0b
fa
fe
25
33
f5
de
f3
11
f3
e0
04
e0
ee
08
f4
ed
13
f9
eb
06
0e
03
01
17
ed
21
0a
0c
00
0f
f8
01
0a
05
18
f3
f2
fe
f1
16
fe
db
03
f9
ef
0a
d6
cb
dc
f7
db
eb
ee
dc
e4
fb
e3
0f
ff
d7
e1
f5
f6
f0
06
eb
06
f9
fb
12
fa
04
0b
f9
0b
01
10
27
02
00
fd
f7
f8
07
04
fb
02
f2
09
0d
ec
01
04
eb
0f
db
01
08
ff
03
02
07
ec
17
fa
06
04
f5
f7
f3
d9
eb
03
ed
ff
10
09
ea
e8
fc
03
06
ff
f1
0e
08
f2
fd
fe
ef
e5
ed
eb
09
fa
f2
f0
0f
02
16
10
f7
02
1a
02
0c
13
f5
0f
f7
05
fe
09
07
1a
0b
e3
14
09
01
0f
e8
f5
e4
0a
10
0d
ec
ef
fd
0d
05
e4
de
19
00
ff
01
fd
f9
02
f8
fa
f1
0c
e9
fe
0f
fa
f7
ec
09
e4
03
1f
0d
ff
fb
f7
ec
08
1b
f4
f7
f0
09
f3
e9
e0
f9
ff
06
fd
fb
f4
09
00
ef
13
12
eb
e8
ee
0a
00
0b
05
04
05
06
06
03
06
07
09
08
04
01
02
07
0c
06
04
06
fc
06
08
09
08
0c
03
01
06
06
fd
fe
03
01
06
01
06
05
ff
03
fa
f8
06
06
0b
02
07
fe
fc
04
05
fd
07
01
f8
1b
fe
fc
d2
e4
ef
e8
06
0c
0c
0c
fe
1c
fb
27
08
05
06
01
0f
e9
08
17
f4
f4
01
e8
e1
fe
0a
ee
f9
13
e7
f4
13
05
fe
fd
14
fa
ff
0d
00
00
e6
fd
fb
1e
15
12
f8
ec
f3
f5
10
ed
00
f3
f6
09
e0
f6
07
f3
0f
13
09
e5
03
09
f8
ee
10
26
02
f6
0f
00
f0
13
13
02
0a
12
fd
02
11
fe
07
16
fc
02
02
fe
00
14
f7
00
ff
00
f8
f1
10
1e
1a
02
fd
fa
0e
2f
00
0e
00
04
0b
0e
0e
0e
fd
06
01
f6
f4
fa
02
1a
fd
fe
f0
e1
ee
ff
0b
02
00
f1
0b
fd
f1
fe
fe
ed
fa
ea
03
01
d3
0a
ff
f3
01
01
ff
f3
fa
f5
13
0b
f3
fd
e3
fe
0c
00
05
ee
fa
0a
00
f2
2c
24
f8
fa
14
06
00
05
09
f9
f5
0a
fe
f0
fe
f5
e6
f7
dc
f5
08
f1
0b
fd
f1
14
05
fc
f7
05
09
fa
d4
13
f8
e9
11
ed
f4
eb
ee
f2
e3
ca
de
10
1c
05
f7
d5
e6
0a
0c
f6
db
19
0f
ed
0e
02
02
f7
fa
17
15
05
fe
fc
07
04
ee
fe
14
f3
f4
16
fc
eb
18
13
fb
e0
fc
f7
02
eb
fa
f3
fc
fe
f6
d9
08
1f
08
04
f5
ed
d6
fd
21
0d
0f
12
08
0e
04
0e
09
fa
0c
de
f5
14
f7
ea
14
04
02
02
f8
0a
fd
0f
00
fd
e1
d0
e5
0c
f0
fa
ef
f3
05
ed
12
00
fb
0f
ff
f4
d6
19
18
f6
f1
f2
f2
ed
f1
f3
fb
01
05
01
ff
05
1a
f9
ff
02
00
23
0e
0a
fd
02
ec
ef
e6
f1
fe
fd
fa
fe
ea
f4
f9
e6
04
f9
e8
fe
e7
f2
ea
ec
03
1d
24
14
f5
00
fc
ee
00
0e
f6
0b
f5
f6
ea
18
17
0c
02
f7
f0
ed
03
17
ff
f5
18
04
02
f6
fa
0e
0f
04
fd
ff
f7
14
0d
fb
02
02
fe
f6
db
e4
0e
23
fb
09
ff
15
37
f5
0b
ff
0e
05
0a
07
fe
05
02
f2
05
04
13
ff
0d
ff
01
fd
ff
ff
fc
09
01
04
02
ff
fe
0b
e7
01
f8
01
e7
ea
0e
21
04
00
f4
e9
f9
16
f1
1a
ff
f1
ff
f5
0d
07
0b
08
0b
ff
d6
14
fe
17
fd
06
08
fb
de
df
f9
00
fc
1b
11
08
04
ff
02
f7
f2
f3
11
d5
08
fa
f3
02
f2
ef
e9
ef
f0
00
04
f5
10
0b
f3
1d
15
11
f8
12
10
e0
f3
1c
2e
04
fe
0e
0b
13
07
de
01
f7
ee
01
e1
e9
05
d2
ec
ee
02
fd
f1
f4
f9
f2
03
02
f3
ef
e7
25
16
f8
14
00
e8
f9
02
f4
19
f2
04
fb
29
df
d5
e9
ec
ed
f7
f0
f9
e5
ec
fa
f8
fa
fc
d2
0c
23
09
f5
f6
ea
f4
09
15
16
0e
ff
0a
fe
f8
f2
ff
0a
1a
0b
eb
cf
d9
fa
03
fe
f4
ec
ef
00
ed
16
de
bc
e9
13
1f
2b
f3
ec
ea
f3
fa
03
13
f9
1c
e9
0a
18
02
fd
fd
fa
f6
12
e3
ff
fa
01
01
01
ff
ff
fe
ff
ff
01
02
00
ff
ff
fe
00
fe
01
ff
ff
ff
00
01
00
ff
ff
00
02
ff
fe
01
00
01
01
ff
fe
01
ff
ff
ff
ff
fe
fe
02
02
00
01
02
ff
ff
02
f7
fe
f1
f8
f6
04
fe
ff
0c
0b
fc
04
fd
0c
0a
fc
db
c3
f8
ec
e3
f4
01
cf
f6
fa
e7
fe
0a
fe
fb
db
03
ff
f7
12
17
0d
07
ed
fa
12
11
01
ed
07
fd
ff
0c
fe
03
13
0e
e1
ef
11
0a
dc
e7
d5
e6
f4
10
fe
ec
f1
11
12
17
0b
e4
f5
eb
10
0c
f1
12
ed
ec
fd
ea
07
08
16
f8
f1
fd
00
00
00
00
f8
09
f3
02
22
ec
02
05
0e
fd
07
f9
f1
f3
dd
ee
11
fe
fb
ff
fd
fa
03
fd
0d
f3
fc
fa
25
1b
f1
d6
ee
02
f1
04
1b
e1
ec
29
00
02
0e
0b
f3
04
07
00
02
fd
f6
16
f8
18
07
00
ff
fd
01
01
ff
01
01
fd
ff
00
fe
fe
fe
00
ff
00
ff
00
ff
fd
fd
fe
fd
00
fd
fd
00
fe
00
01
02
01
00
00
00
fd
ff
fd
fe
01
01
ff
01
00
fd
ff
01
01
02
02
fe
01
00
02
00
fe
02
00
ff
01
fe
01
fe
ff
01
00
00
00
02
02
02
ff
fe
00
01
00
ff
00
00
ff
ff
02
fe
ff
fe
02
ff
02
02
ff
02
fe
01
fe
01
ff
00
fe
01
ff
fe
fe
00
01
00
fe
01
fe
fe
01
fd
00
01
01
ff
ff
02
00
01
00
ff
01
00
00
01
00
02
fe
01
00
01
ff
fe
02
01
ff
01
00
00
fd
fd
ff
ff
fe
00
00
01
fe
fe
01
00
01
00
00
02
ff
00
02
ff
ff
02
02
02
02
02
00
01
fe
01
fe
00
fe
01
02
02
01
01
01
02
fe
01
00
00
ff
ff
fe
01
fe
fe
ff
fd
01
fe
fe
ff
ff
ff
ff
00
ff
fe
00
00
01
00
00
fd
00
fe
00
fd
01
fe
ff
ff
00
ff
fe
ff
00
01
00
fe
01
01
fe
fd
fd
fe
01
00
00
fe
fe
01
ff
fd
01
fe
fe
00
fe
fe
01
ff
fe
fe
00
fe
fe
ff
00
00
ff
01
fd
01
ff
ff
02
01
fd
ff
00
ff
ff
ff
ff
01
fe
00
01
ff
ff
ff
01
fd
fe
00
02
ff
ff
ff
fd
01
fe
fd
fe
ff
00
ff
ff
fd
01
01
fe
fe
ff
01
01
fe
00
fe
ff
ff
fd
fe
01
ff
ff
ff
ff
00
fe
ff
01
fe
ff
fe
fd
00
fe
00
00
00
fe
02
00
fe
00
01
ff
fe
00
fd
fe
fe
fe
ff
fd
01
01
ff
00
ff
00
00
02
ff
fe
ff
fe
00
00
ff
02
02
00
fe
ff
ff
01
01
00
02
01
00
00
ff
02
ff
fe
01
00
fe
fe
fe
02
fe
fe
01
ff
00
fe
01
ff
01
fe
01
02
01
01
fd
01
ff
01
ff
fd
ff
ff
01
fe
ff
00
02
01
00
01
00
00
ff
ff
ff
02
00
fd
01
00
02
02
02
00
fe
00
00
ff
00
ff
00
ff
00
fe
fe
01
00
ff
fd
01
ff
ff
02
ff
ff
00
01
01
00
00
02
fe
02
fe
00
fe
00
00
ff
fe
00
ff
00
ff
01
01
01
01
00
ff
ff
fe
01
ff
ff
01
01
00
fe
01
ff
fe
01
01
ff
00
fe
00
01
ff
ff
00
00
01
00
fd
ff
02
ff
ff
ff
01
ff
fd
02
fd
ff
02
00
ff
ff
00
01
ff
fd
fe
00
fe
00
ff
ff
fe
00
fd
fd
01
fe
01
02
fe
00
fe
02
fe
ff
ff
fe
00
00
00
fe
ff
00
01
00
fe
ff
fe
00
fe
00
01
01
ff
02
00
fe
ff
ff
fe
00
fe
02
fe
00
fe
00
fe
ff
fe
01
fe
fe
00
ff
01
fe
00
01
ff
ff
00
01
fe
00
01
ff
02
02
00
ff
01
ff
01
ff
fe
fd
fe
fe
fe
ff
00
ff
fe
ff
ff
fe
fe
01
01
00
00
00
ff
ff
02
fe
01
01
02
fe
01
01
fe
fe
ff
01
ff
01
ff
00
00
fe
02
00
ff
01
01
fd
ff
01
01
ff
fe
fd
fd
01
ff
fe
02
01
01
fd
01
ff
ff
01
02
00
ff
fd
00
01
01
fe
fe
00
fd
ff
00
00
ff
00
fe
fe
01
01
fe
00
ff
fe
fe
ff
00
ff
fd
ff
fe
fe
ff
02
fd
01
fe
00
01
01
fe
02
02
00
ff
00
ff
fe
ff
01
01
00
fe
ff
01
01
01
01
00
00
02
01
01
ff
fe
fe
ff
ff
00
fe
ff
00
00
02
02
ff
00
01
fe
fe
02
01
fe
02
fe
fe
02
02
02
00
00
02
00
ff
fe
01
00
01
02
02
ff
00
00
ff
02
01
00
fe
00
02
ff
ff
fe
fe
fe
fe
00
00
fe
ff
02
02
fe
00
02
01
01
fe
01
fe
02
00
ff
fe
00
ff
ff
ff
00
00
00
00
fe
00
01
00
00
fe
fe
01
00
01
00
ff
fe
01
fe
ff
ff
00
02
01
01
00
fe
ff
02
fe
fe
fe
00
00
00
ff
fe
fe
01
01
ff
01
ff
01
ff
fe
00
fe
ff
00
fd
ff
02
02
02
01
fe
fe
00
01
ff
fe
00
01
fe
01
fe
02
ff
fe
01
fe
00
01
ff
01
00
02
00
02
01
02
00
fe
fe
00
01
ff
ff
01
ff
fe
02
fe
01
01
ff
01
02
ff
ff
ff
fe
01
02
ff
00
ff
01
00
fe
00
01
fe
fe
02
fe
00
02
ff
00
ff
00
00
fe
01
01
00
01
01
fe
ff
01
ff
fe
01
00
02
00
ff
ff
ff
01
ff
00
fe
ff
01
ff
fe
ff
ff
fe
fe
01
00
00
fd
ff
00
00
ff
fe
fe
00
00
01
fe
00
01
00
ff
00
fe
fd
01
00
fd
00
00
fd
fe
fd
00
ff
ff
00
fe
01
02
fe
ff
ff
ff
00
00
ff
00
01
01
01
00
ff
fe
fd
fe
ff
fe
01
ff
00
fe
01
01
02
fe
02
01
01
02
02
fd
01
00
01
ff
ff
01
00
01
00
00
00
00
00
00
01
fe
01
fe
00
01
fe
01
01
fe
ff
01
01
01
02
01
01
02
02
00
ff
02
00
ff
00
01
00
00
02
02
fe
00
01
00
01
01
00
00
01
00
00
01
ff
02
01
00
ff
00
fe
01
ff
00
ff
00
ff
02
fe
ff
01
02
ff
00
fe
01
01
fe
02
02
00
02
fe
fd
00
02
ff
01
ff
00
fd
00
fe
ff
01
01
00
fe
ff
ff
02
00
ff
ff
02
00
ff
ff
01
ff
fe
02
ff
fd
00
00
fe
00
fe
fe
fe
00
01
ff
ff
00
01
fe
01
fe
fd
00
01
ff
00
fe
ff
ff
00
01
00
fe
fe
01
fe
01
fd
02
00
ff
fd
fd
ff
01
00
ff
ff
00
fd
01
01
01
01
fe
fe
01
ff
01
fe
fd
ff
fe
fe
ff
00
00
01
fe
ff
fe
00
fd
ff
00
fe
00
ff
00
ff
00
ff
00
00
00
fe
fe
fe
00
01
fe
ff
00
01
01
fe
00
ff
fe
ff
01
fe
01
fe
01
ff
fe
ff
fe
fe
fe
fe
ff
01
01
fd
ff
00
01
00
01
00
00
01
fd
00
01
00
00
01
fd
ff
02
00
ff
fe
fe
01
fe
ff
fe
ff
fe
fd
00
01
fe
fe
02
02
ff
01
ff
00
ff
ff
fe
02
01
01
ff
00
02
fe
00
fe
fe
01
01
00
fe
fe
00
02
02
00
01
01
00
01
02
01
ff
01
fe
fe
00
00
ff
02
ff
00
ff
ff
ff
01
fe
00
00
02
ff
00
00
00
fe
ff
fe
01
ff
fe
02
fe
00
00
01
ff
ff
01
01
ff
02
ff
fe
fe
fe
01
01
fe
fe
01
01
ff
ff
00
fe
fe
02
fe
ff
fe
ff
00
00
01
fe
00
01
00
fe
fe
01
fd
fe
02
01
00
ff
01
fe
ff
00
00
ff
01
00
fe
02
fe
00
01
02
fe
ff
02
fe
02
00
ff
01
01
01
02
fe
ff
00
00
01
01
fe
fd
ff
fd
ff
fd
00
01
ff
ff
fe
fe
01
ff
01
00
ff
02
fe
fe
00
00
00
fe
01
02
01
ff
00
fe
01
02
02
02
fe
00
ff
00
fe
ff
02
00
00
02
fe
01
02
00
fd
00
fe
00
02
ff
fe
01
fe
fe
01
00
01
fe
ff
fe
00
01
00
02
00
ff
ff
fe
fd
01
01
ff
01
00
ff
fe
fd
00
01
ff
02
02
00
ff
ff
02
ff
02
00
01
01
00
fe
01
01
fe
fe
00
ff
00
fd
ff
00
ff
02
fe
01
01
00
01
01
ff
fe
fe
01
00
01
00
01
00
00
01
ff
00
02
01
fe
fe
00
fe
ff
fe
01
ff
00
00
ff
ff
ff
01
fd
01
01
00
ff
ff
00
01
00
ff
ff
00
00
01
ff
ff
fe
00
00
ff
fe
00
01
01
00
fe
ff
00
01
01
00
00
fd
00
00
ff
fe
fe
01
fd
01
fd
01
00
fd
01
fd
02
ff
01
01
01
ff
01
00
00
01
00
00
ff
fe
fe
00
01
00
00
00
ff
fe
01
fe
00
ff
01
00
fe
ff
ff
fe
fe
02
fe
01
02
01
01
ff
00
00
ff
00
01
00
02
00
ff
ff
ff
00
00
ff
ff
01
ff
ff
ff
fe
00
ff
01
01
00
01
02
ff
01
01
02
02
ff
fe
fe
01
fe
ff
02
ff
00
00
ff
ff
02
00
fe
01
02
02
01
02
02
ff
fe
00
01
00
ff
fe
00
00
00
fe
01
02
00
01
00
fd
ff
fe
fd
01
fe
00
02
01
01
fe
fe
fe
fe
00
02
00
00
ff
01
fe
ff
fe
02
fd
02
fe
fe
fe
01
fe
fd
00
fe
00
01
00
ff
fd
fe
ff
fd
fd
fe
fe
00
01
fd
00
00
01
ff
ff
01
01
ff
fe
00
fd
00
00
ff
fe
01
fd
fe
01
01
00
00
01
02
01
01
fe
fe
00
01
fd
fe
ff
00
01
ff
01
fd
fd
fe
ff
fd
fe
00
00
00
fe
fd
01
fe
fd
02
ff
fe
ff
01
01
fe
ff
fe
00
ff
ff
ff
ff
00
00
fe
fd
ff
02
00
00
fd
fe
01
00
01
fd
01
00
00
ff
ff
00
ff
fe
00
fe
01
02
02
01
01
00
ff
00
fe
fd
00
02
ff
01
ff
00
ff
02
ff
fe
fe
ff
01
ff
00
00
ff
01
ff
02
01
00
01
00
01
00
01
00
ff
fe
01
00
ff
ff
01
02
01
01
01
01
01
ff
ff
fe
ff
01
00
01
ff
fe
fd
00
fe
ff
fd
fe
ff
fe
fe
01
00
fe
fe
00
01
01
01
fe
00
01
ff
00
00
ff
01
01
01
01
00
00
fe
00
02
01
01
02
ff
ff
00
01
01
00
00
ff
00
00
fe
fd
fe
fd
00
fe
00
00
01
ff
fd
ff
00
ff
fd
ff
fe
fe
00
00
ff
ff
01
ff
ff
fe
02
fe
fd
00
01
ff
00
ff
ff
ff
fe
ff
fe
01
00
ff
fe
ff
fe
01
fe
fe
fe
ff
fe
ff
fe
00
fd
01
fe
fd
01
01
ff
fe
ff
00
fe
01
00
01
fe
01
02
01
01
02
00
fe
ff
ff
01
fd
01
fe
ff
01
00
fd
00
fe
ff
ff
00
fd
01
ff
ff
ff
01
00
00
fe
ff
01
00
ff
01
fe
01
02
01
00
01
01
00
01
ff
ff
ff
01
fd
00
01
01
01
fe
01
00
fe
ff
01
fe
00
fe
fd
fe
ff
01
fd
01
ff
fe
00
fe
01
fd
ff
fd
00
01
ff
ff
01
01
00
01
01
01
00
00
ff
fe
fe
fe
01
00
00
00
00
ff
00
00
00
ff
fd
fe
00
fd
fe
01
ff
fd
fe
fe
fd
00
fe
fd
fe
01
00
fe
fe
fe
fe
fd
ff
00
fd
01
00
01
fd
fe
ff
fd
ff
ff
fe
fe
00
fe
fe
fd
fe
01
ff
00
00
fe
fd
fe
fe
ff
fe
00
ff
fd
02
fd
01
ff
01
01
01
01
fd
fe
fe
ff
ff
00
fe
01
fe
fd
ff
ff
01
fd
01
00
fd
ff
ff
01
01
ff
fd
01
fd
fe
01
01
ff
00
ff
ff
fe
00
fe
00
ff
ff
ff
ff
ff
fe
01
02
01
fd
fd
02
fe
ff
ff
ff
01
00
00
ff
01
ff
01
01
ff
00
fe
fe
02
fe
00
01
fe
00
02
ff
02
02
fe
fe
02
ff
ff
00
01
fe
ff
fe
01
00
01
00
01
02
01
00
00
02
00
02
01
00
01
00
00
fe
01
00
02
fe
00
ff
ff
00
00
fe
00
fd
ff
ff
01
ff
ff
fe
01
fd
fe
01
ff
ff
fe
02
ff
01
00
02
01
01
ff
ff
01
fe
02
00
ff
ff
01
01
00
01
fe
ff
fe
00
01
01
02
ff
fd
01
00
00
01
ff
ff
ff
01
00
fd
fe
00
ff
fe
ff
fe
01
00
00
01
01
00
00
01
00
01
ff
fe
01
02
ff
01
fd
00
ff
fe
fe
fd
01
fd
01
01
ff
01
fe
fe
00
ff
01
00
fe
ff
00
fe
01
ff
00
00
01
fe
01
ff
00
ff
00
fe
01
fe
ff
ff
01
fd
fe
01
02
00
ff
ff
02
02
fe
fe
fe
00
00
00
00
fe
00
01
00
fe
00
ff
02
00
fe
01
ff
01
fe
00
01
00
01
00
01
00
01
01
01
01
ff
00
fe
fe
fd
01
00
01
00
01
02
fe
02
01
01
ff
ff
ff
fe
01
fe
ff
00
01
fe
fd
02
ff
ff
01
00
00
ff
01
fe
00
00
01
fe
01
01
fe
01
00
01
01
fd
ff
fe
fd
01
00
fe
fe
fe
01
00
fe
00
01
fe
00
fe
00
00
ff
fe
01
01
fe
00
fd
01
fe
ff
00
01
00
01
01
ff
ff
01
00
fe
02
fd
ff
00
fe
ff
fe
fe
00
fe
01
fe
fe
ff
fe
00
fe
01
01
ff
00
fd
fe
ff
fe
00
02
ff
fd
ff
fe
01
fe
00
ff
00
00
fd
01
fe
01
ff
ff
ff
01
00
ff
fe
ff
01
01
fe
fe
ff
fe
01
01
fe
01
fe
fe
00
00
fe
fe
ff
00
fe
01
fe
01
ff
01
fe
fe
fd
00
fe
00
00
01
fe
fe
00
ff
00
01
01
fd
00
ff
01
ff
00
01
01
ff
01
00
01
01
fe
ff
ff
00
fe
ff
00
fe
fe
fe
00
00
ff
02
02
00
00
ff
ff
ff
fe
fe
fe
02
ff
01
00
00
fe
01
00
fe
ff
00
02
01
01
ff
01
fd
01
ff
00
00
00
01
00
fe
ff
02
fe
00
ff
fe
fe
ff
01
fe
ff
ff
01
01
00
00
02
fe
00
01
fe
01
02
00
00
02
00
fe
ff
01
00
01
01
ff
02
fe
ff
02
01
fe
fe
00
00
ff
01
00
ff
01
01
00
fe
fe
00
00
fe
fe
00
ff
ff
fe
fd
00
fd
02
fe
ff
fe
00
00
00
ff
ff
00
01
01
01
fe
00
fe
00
ff
01
fd
00
fd
fe
01
ff
fe
fe
fe
fd
fe
00
ff
fe
fe
01
01
00
ff
01
01
ff
fd
ff
fe
01
ff
00
fe
fe
02
02
ff
00
01
00
00
00
ff
00
ff
fe
ff
00
01
00
ff
ff
00
fe
01
00
ff
ff
ff
ff
00
fd
ff
01
fe
01
fe
fe
ff
ff
ff
01
fe
ff
00
00
fe
01
ff
01
00
fe
01
01
00
fd
fe
ff
ff
00
01
01
fe
ff
ff
fd
00
01
02
01
01
fe
01
00
01
00
fd
02
ff
02
fe
02
fe
01
ff
02
01
ff
00
01
ff
fe
00
fe
fe
00
00
fe
fe
01
00
fd
fe
ff
01
ff
00
fe
fe
ff
02
01
01
00
ff
fd
00
fe
ff
02
fe
00
01
02
ff
fe
00
01
ff
00
02
00
01
00
00
02
ff
00
00
01
fe
00
ff
02
ff
fe
01
02
00
fe
01
00
00
01
ff
00
fe
02
01
fe
02
00
01
01
ff
ff
00
ff
00
00
02
01
00
fe
ff
02
02
ff
ff
01
00
ff
01
01
00
fe
fe
02
fe
00
02
fe
ff
00
00
fd
ff
ff
fe
fe
00
fe
fe
01
fe
fe
00
00
00
fe
ff
ff
02
fe
fe
fe
ff
02
02
fe
fe
02
01
00
01
fe
ff
ff
00
01
01
fe
fd
ff
ff
fd
fe
01
00
01
fe
ff
ff
fe
fd
ff
01
ff
ff
fd
01
00
ff
00
fd
ff
fe
00
ff
00
00
01
fe
ff
00
01
fe
01
01
00
ff
00
00
02
ff
00
01
00
ff
01
fd
01
fe
ff
fe
fd
ff
ff
ff
ff
ff
00
fe
02
01
02
00
ff
ff
01
02
01
ff
00
01
02
ff
ff
00
02
fe
00
ff
00
02
ff
01
02
ff
00
ff
ff
01
01
ff
ff
ff
ff
ff
ff
ff
ff
00
fe
fe
ff
00
fe
00
00
fe
ff
fe
00
ff
01
ff
fe
00
fe
ff
00
ff
ff
ff
ff
fe
01
00
fd
02
fe
ff
00
fc
fd
fe
fc
fd
fd
fe
ff
00
fc
fe
01
fd
fe
ff
02
fe
fd
ff
ff
fe
01
ff
01
02
00
01
ff
fd
fe
fd
00
01
ff
02
ff
03
fe
01
ff
fe
00
ff
01
00
fe
00
02
fe
ff
ff
02
fe
02
ff
02
fe
fc
fe
03
02
ff
ff
01
ff
01
fe
02
00
fe
fe
01
fc
ff
ff
fc
01
01
ff
ff
03
03
02
01
01
fd
ff
fe
ff
fe
ff
fe
fd
00
fe
ff
ff
02
ff
ff
ff
00
fe
02
00
02
fe
fe
00
01
ff
ff
00
ff
03
00
00
ff
fe
ff
fe
fe
00
01
fd
fd
00
ff
01
fe
fe
fd
fc
ff
01
01
ff
fe
ff
00
fe
fe
ff
ff
fe
fe
ff
fe
ff
fe
ff
01
ff
01
fe
00
fe
ff
00
fd
fe
fc
fc
fd
ff
00
fd
ff
00
fc
fc
fd
fe
ff
fd
ff
fe
fe
01
01
01
fd
fe
fd
00
fd
fe
fd
fe
fe
ff
01
ff
01
fe
ff
01
fe
01
00
fd
fe
00
fe
ff
00
fd
ff
00
00
fe
fe
fd
00
fe
fe
00
00
00
fe
fe
fe
fd
fd
ff
fe
ff
ff
ff
02
fe
00
00
fe
fe
02
01
ff
ff
01
00
fe
fe
00
fd
fe
00
fe
fd
ff
01
01
00
00
fe
fd
fe
ff
fe
fd
ff
01
01
fd
fd
00
ff
ff
01
ff
fd
ff
01
00
02
00
01
fe
00
01
00
00
fe
00
00
fe
fd
00
02
00
00
00
01
02
fe
fe
fe
fd
fe
01
00
01
01
03
ff
01
01
fc
ff
fd
fe
ff
00
fe
00
00
00
fe
ff
01
fd
fd
01
01
fe
ff
fd
00
00
ff
00
fe
fd
01
01
fd
00
01
00
fd
00
ff
00
01
00
fd
01
fc
ff
ff
fe
fe
00
fe
00
00
fe
00
ff
01
fe
fd
fd
00
01
01
ff
00
fe
00
00
00
02
03
ff
ff
fe
02
00
00
02
fc
01
fd
fe
00
00
ff
fe
fe
fd
ff
ff
fe
fc
fe
fd
01
02
00
fc
fc
fd
fd
01
02
ff
03
fe
ff
01
01
00
fe
fd
00
ff
02
fd
02
fe
01
00
fc
fd
ff
00
fe
fe
fe
fe
00
00
01
fd
00
fd
fc
02
fd
02
fe
fe
fe
fc
fe
fe
00
01
fe
fc
00
ff
02
00
02
01
fc
ff
ff
00
ff
fc
fc
ff
01
00
fe
00
00
01
fe
00
00
02
01
00
ff
01
00
00
fe
01
00
fd
ff
fc
00
fe
02
00
ff
fe
fe
00
02
fe
ff
fd
fe
00
00
fe
00
fe
fc
fd
01
01
fe
ff
fd
00
00
01
01
01
ff
ff
ff
00
fe
ff
01
01
ff
fe
00
01
00
00
02
fe
02
ff
00
00
fe
00
fd
fe
ff
fd
ff
00
00
01
fd
fe
fe
ff
01
01
ff
01
00
00
00
fd
fe
01
fe
fe
00
fe
01
03
03
fc
ff
00
ff
ff
01
fe
01
ff
00
01
01
ff
01
ff
ff
02
ff
fe
01
fd
fc
fe
00
fd
01
00
ff
02
01
fc
fe
01
fd
ff
ff
00
02
00
ff
00
fc
fd
fd
fd
ff
ff
fc
fe
fe
ff
ff
fc
00
ff
ff
ff
fd
00
fd
fd
fe
fe
02
02
01
ff
fc
fc
fd
00
fe
01
00
ff
fe
fe
fe
00
00
fd
fc
00
00
fc
fc
fe
ff
fc
fc
01
00
fd
ff
ff
01
fe
ff
00
fe
fd
fe
ff
00
02
00
fd
00
ff
01
fd
01
00
01
00
01
fe
ff
ff
fe
00
fe
00
00
fe
02
00
fd
fc
ff
01
fe
02
00
01
ff
00
02
01
ff
00
00
00
fe
fe
01
00
ff
02
ff
fe
01
01
fe
01
ff
00
ff
01
ff
ff
02
fe
fe
fd
fe
01
01
fe
ff
01
fe
ff
00
00
02
00
ff
ff
01
fe
00
fd
00
ff
00
01
01
00
ff
02
02
00
fe
ff
fe
fd
01
00
00
01
fe
ff
fe
00
fc
ff
fe
fe
00
ff
fe
fc
ff
fd
ff
fe
fe
fe
01
01
ff
fe
fe
ff
ff
fc
00
02
fe
00
00
02
01
01
fe
00
fe
ff
ff
00
fd
fd
01
02
00
ff
01
01
ff
ff
ff
03
02
01
fe
fe
00
00
01
fe
00
00
ff
00
ff
ff
00
fe
00
00
fe
00
fe
ff
fd
fe
01
fd
ff
ff
01
00
00
ff
fd
01
ff
00
00
fd
02
00
01
00
fe
fd
01
00
ff
ff
00
00
ff
01
01
ff
00
ff
00
fc
02
fe
fd
ff
fd
00
fe
fc
ff
ff
fd
ff
ff
ff
00
02
00
02
02
00
01
01
01
00
ff
fd
fe
01
00
00
00
00
fc
ff
fd
01
fe
fe
ff
fe
ff
fe
fd
00
fe
fd
00
01
fd
fd
ff
fd
ff
01
00
01
ff
fe
00
ff
ff
fe
00
fe
ff
fe
fd
fd
fe
fd
00
fd
fe
01
00
01
fe
01
00
fd
03
fc
01
00
fe
fd
00
01
fd
00
ff
00
ff
00
fc
fc
00
00
ff
fd
00
fe
00
01
00
fd
fd
00
00
00
01
00
fd
fd
fd
01
00
fe
fe
fe
fd
fd
ff
ff
ff
fd
fd
00
fe
00
fd
00
fc
ff
02
00
fe
00
ff
fc
ff
01
00
fd
ff
ff
00
00
00
01
ff
fe
ff
ff
01
fc
ff
00
01
00
00
00
ff
ff
02
02
00
ff
01
01
fe
ff
00
ff
fe
01
fd
00
ff
fe
01
00
ff
fe
00
ff
fe
fe
fc
fe
fe
fc
ff
ff
fe
fd
01
fe
01
ff
fe
fd
fe
01
fd
00
ff
fe
ff
fd
00
00
ff
03
ff
fd
ff
01
fe
00
fe
fd
ff
ff
00
fd
00
fe
fe
00
ff
ff
fe
fd
ff
01
01
02
02
fc
fd
ff
00
01
fc
fe
fd
00
fe
fe
00
00
ff
01
ff
ff
00
fd
fd
00
fd
00
00
fe
fd
ff
00
ff
fd
00
fe
fd
fd
ff
00
ff
00
fe
fe
00
00
00
01
ff
02
fc
00
fc
fe
01
fe
fc
02
fd
fe
ff
02
00
fe
fd
00
ff
ff
ff
00
fe
fe
ff
01
00
ff
ff
ff
fe
fd
fe
ff
ff
fd
fd
00
fe
fe
ff
ff
ff
fe
fd
00
03
fd
fe
00
01
fd
ff
01
ff
ff
ff
fe
ff
02
fe
fe
fe
fc
fe
ff
fc
00
ff
ff
fe
ff
00
ff
ff
02
fd
01
01
01
00
00
00
00
00
fd
fd
00
00
fe
00
fd
00
ff
00
02
01
ff
fe
00
02
fe
02
fd
01
fe
fe
fe
fc
ff
ff
fd
fe
fe
ff
01
01
00
ff
fd
00
ff
fd
00
fd
00
02
ff
00
00
01
ff
fc
ff
fd
00
fd
fe
01
fd
02
00
ff
ff
01
ff
fd
00
ff
00
ff
fc
ff
fe
fd
fe
01
ff
fd
00
fe
ff
fe
03
ff
fe
03
00
01
00
00
fe
00
ff
00
00
02
ff
ff
fe
fd
02
fd
ff
fe
ff
00
fc
fe
fd
ff
fd
00
fd
00
fe
ff
ff
ff
01
01
fd
00
ff
01
00
00
01
ff
fe
00
ff
00
01
ff
fc
fe
fe
fd
ff
fe
00
fe
ff
02
ff
00
fc
fe
ff
fd
01
fe
02
fe
02
02
ff
ff
fe
00
ff
ff
ff
00
01
fd
00
fc
01
ff
ff
fe
ff
fe
fd
01
00
ff
01
fd
fe
01
00
01
ff
fd
ff
00
02
01
02
fc
ff
02
ff
03
fe
00
00
01
fc
01
01
fe
fe
00
fd
fe
fe
ff
00
00
fe
02
ff
01
00
02
02
fd
01
fe
01
00
00
fd
ff
00
fc
fe
fd
fe
01
00
01
02
00
fe
ff
02
ff
01
fd
fe
01
fe
fe
00
01
00
01
fd
fd
00
01
01
ff
01
00
02
ff
fe
fe
ff
01
fe
01
02
fe
fe
00
01
00
01
ff
fe
fc
ff
fe
fd
ff
fe
ff
fd
01
fd
ff
fe
00
01
ff
fd
00
fd
01
fd
00
01
fe
02
01
00
ff
01
02
fc
00
fe
02
ff
00
01
01
00
ff
ff
01
fe
00
fe
00
ff
00
03
01
fe
fc
ff
fe
ff
00
00
fe
01
fe
fd
02
fe
02
00
00
02
fe
00
ff
fd
fe
fc
00
ff
fe
fd
fe
fd
01
ff
00
ff
00
fd
fd
ff
fd
00
ff
00
fe
fe
ff
01
00
ff
fd
ff
fe
00
00
ff
02
fc
01
fd
00
fd
00
02
00
ff
02
02
ff
ff
01
ff
ff
fd
00
fd
01
01
fd
01
ff
ff
00
fe
fc
fd
00
ff
fc
fe
fe
fd
00
00
00
fd
fe
fe
02
00
01
01
ff
01
ff
fc
ff
fe
ff
fe
ff
fe
01
ff
ff
01
02
00
01
00
ff
fc
fe
fe
fd
fe
ff
fd
fe
ff
fd
00
fe
ff
fc
fd
fd
fc
fe
fd
ff
fc
ff
ff
00
fe
00
01
fe
fd
fe
ff
fe
00
ff
ff
fe
fe
ff
ff
fc
fe
ff
ff
ff
fd
fe
00
fd
ff
fe
01
01
fe
fd
00
fe
fd
fd
fc
00
01
ff
fe
ff
fe
fd
fd
fd
ff
ff
00
fe
ff
00
00
ff
fc
ff
ff
fe
01
00
00
fd
00
00
01
fe
fd
00
ff
01
01
00
00
00
02
fe
fe
03
fe
01
ff
fd
ff
00
01
01
02
02
00
fe
fe
00
fe
01
fd
fe
fe
fc
fe
fe
fd
00
fe
00
fc
ff
fe
fc
fe
fd
ff
fe
fe
fc
02
ff
ff
01
fd
02
fe
fd
fe
ff
fe
00
01
01
fe
01
ff
ff
02
fe
fe
00
ff
02
02
00
01
01
fe
ff
00
00
fe
ff
01
00
ff
00
ff
02
ff
03
03
00
ff
02
fe
ff
ff
ff
00
02
01
ff
01
01
ff
00
02
00
fe
fd
00
fd
ff
00
fe
fd
fd
00
01
fe
00
fe
fe
fe
00
ff
ff
01
00
ff
fd
00
02
ff
00
fe
00
fe
01
ff
ff
01
01
00
ff
00
00
00
01
fc
ff
ff
ff
01
00
ff
fd
ff
fe
fe
ff
00
fe
00
fe
ff
ff
fd
00
fe
ff
ff
fe
00
fd
01
fd
ff
fe
ff
ff
ff
00
fc
fd
00
01
00
00
fd
ff
fc
ff
00
ff
fd
00
ff
ff
fe
ff
ff
fe
ff
fd
fc
02
02
ff
01
fe
00
ff
fe
fd
ff
03
ff
ff
fe
02
01
fe
fd
fe
ff
fd
ff
ff
01
01
ff
ff
00
fd
fe
fe
00
fd
fe
fd
ff
fe
ff
fe
fe
ff
00
00
01
01
00
00
fe
01
00
fc
00
fc
fe
00
fe
fe
01
00
01
00
01
00
fe
00
fd
00
01
fe
00
fd
ff
00
00
fd
ff
01
ff
01
02
00
01
fe
fe
fd
fc
fe
fe
fe
fc
fe
fe
fd
fe
fc
fc
ff
fc
00
00
fd
fe
ff
00
ff
fd
ff
fe
fe
00
fd
fc
fe
fe
fd
ff
fe
ff
fe
fe
fd
fe
fd
00
fe
00
00
fc
01
00
00
00
ff
01
01
02
fc
ff
00
01
00
ff
00
ff
ff
ff
00
02
00
fe
00
ff
01
01
01
ff
ff
fe
00
fe
fc
ff
ff
fd
fd
fe
ff
00
01
ff
ff
01
fc
ff
01
02
01
fd
ff
ff
fe
00
00
02
02
ff
00
03
ff
fd
00
00
01
02
01
ff
01
ff
01
01
fd
ff
02
00
fd
01
ff
fe
00
00
01
fd
01
fe
fe
01
ff
fe
fe
ff
00
fd
01
fd
fe
ff
ff
ff
fe
fd
ff
fe
00
01
fe
ff
ff
01
ff
01
fe
fe
01
fe
fe
00
01
03
01
ff
ff
01
00
ff
00
ff
00
fe
01
00
ff
01
00
03
03
fe
ff
02
01
fe
01
fe
fe
ff
ff
00
ff
01
02
fe
00
01
fd
fe
01
01
fe
01
01
03
02
ff
02
fe
00
ff
00
ff
fe
00
00
fe
02
fe
fd
ff
01
01
01
00
ff
01
ff
01
01
00
ff
ff
01
00
01
fd
00
01
00
00
fe
00
fe
ff
03
ff
ff
ff
ff
fd
ff
01
01
ff
00
00
fd
01
01
ff
ff
ff
00
ff
01
ff
ff
01
fe
fd
fe
fd
01
fe
fe
00
01
fd
ff
fd
01
ff
ff
ff
fd
fe
ff
01
01
ff
fe
fc
fd
02
01
fe
01
01
fd
00
fd
01
00
01
01
fd
01
ff
ff
00
fd
01
00
01
fe
00
00
fe
fd
fd
01
ff
fe
fd
01
01
00
fd
ff
ff
fe
fe
fd
fd
00
fe
00
ff
fd
01
fc
fd
01
fd
00
01
01
fc
fe
02
01
02
fd
fe
fe
01
01
fc
ff
fe
fe
01
03
ff
ff
00
fe
01
fc
01
ff
01
fd
01
fe
ff
02
ff
fd
fc
fd
fd
00
fe
fe
00
fd
00
00
01
01
ff
00
02
00
00
00
fd
03
01
01
00
00
fd
fc
fd
fe
00
fe
00
ff
01
03
fc
ff
ff
ff
02
ff
00
fe
00
ff
fd
00
ff
ff
01
00
fe
fc
00
01
03
ff
01
fc
ff
fe
ff
fe
ff
fe
fd
ff
01
00
fc
00
fe
fd
ff
fd
fe
00
fd
fd
ff
00
fe
00
02
01
ff
fe
01
fd
ff
fe
fe
01
fd
ff
ff
ff
fe
ff
ff
fc
fd
00
fe
ff
02
fe
fd
00
fd
00
00
00
01
ff
ff
fe
01
01
fe
fe
ff
00
fe
fe
fe
ff
ff
00
ff
01
fd
00
fd
fd
ff
ff
fd
ff
ff
00
01
01
fe
00
00
fe
00
fc
fe
fe
ff
01
fe
00
ff
fe
fe
00
01
00
fe
ff
00
ff
00
ff
ff
fe
fe
00
01
00
fe
ff
fd
fc
ff
00
ff
ff
ff
ff
00
fe
01
00
fe
ff
02
fe
00
ff
00
00
ff
00
00
fe
fd
ff
fe
00
00
fd
fe
ff
00
fe
02
fd
00
fd
00
ff
01
01
ff
00
fe
02
ff
02
02
ff
01
01
00
02
ff
ff
fe
01
00
ff
fe
00
fd
fe
00
01
fe
fe
ff
ff
01
ff
00
00
ff
00
fd
ff
fc
00
fd
fe
01
01
01
00
ff
02
ff
01
02
00
00
02
02
ff
fe
00
fe
01
00
00
fe
ff
00
fe
01
fe
01
01
01
fe
ff
00
ff
ff
00
fe
00
01
fe
fe
ff
ff
ff
fe
02
01
fe
fd
01
ff
fe
ff
00
fd
03
ff
fd
ff
01
fe
ff
00
fe
fe
01
ff
01
ff
ff
fe
fe
01
00
ff
fe
01
fd
ff
fd
01
fe
fe
ff
fe
ff
02
01
fd
fe
fe
01
fe
ff
ff
fc
fd
fe
00
00
00
02
01
00
fe
00
ff
01
fd
02
ff
ff
ff
ff
fe
01
fe
ff
01
01
fe
ff
fe
02
00
fe
ff
ff
fd
fd
01
02
ff
00
00
fe
02
fc
fd
ff
01
fe
01
ff
00
fe
fe
fd
ff
ff
ff
00
00
02
00
ff
00
ff
fd
01
01
02
fc
ff
fc
fc
fc
fe
fe
fe
02
fe
ff
ff
fd
02
fc
ff
02
01
00
fd
ff
ff
fe
01
fe
00
00
fc
fe
02
fe
fe
ff
ff
fd
fc
02
fd
00
ff
fe
03
fc
00
fc
fe
ff
ff
00
ff
ff
00
02
fd
fd
02
ff
00
03
00
ff
fe
fe
00
01
fe
ff
03
00
ff
fe
01
00
fd
00
02
fe
fe
00
01
01
01
01
02
00
ff
ff
00
02
ff
ff
00
ff
00
02
00
02
00
ff
ff
fd
00
00
ff
fd
fd
fd
01
ff
fe
02
fe
fe
fd
fe
fc
ff
ff
fe
fe
fd
fc
ff
fe
ff
fc
fe
ff
fe
fe
fc
01
ff
fe
ff
02
02
fd
ff
ff
fd
fe
00
00
ff
fd
ff
fe
00
00
01
ff
ff
fe
fe
fe
ff
00
ff
fe
fd
fe
fc
fd
fd
01
00
fc
fc
fe
00
ff
fd
fd
fc
ff
fe
01
03
fd
fc
01
fe
00
01
ff
fe
01
00
00
fe
ff
00
00
00
fe
ff
fe
fe
fd
02
fd
01
ff
00
01
01
fe
ff
ff
fe
ff
fd
00
ff
ff
fd
00
00
fe
03
00
fd
fd
01
01
fc
fd
fd
fe
fe
01
fd
ff
fd
fd
fe
ff
01
fe
00
01
ff
fe
00
ff
01
f0
ee
f2
ee
00
01
10
02
06
fd
fc
e0
00
ef
f6
f5
1e
fa
03
06
f2
f0
0f
2e
ea
f0
fd
e6
ef
00
fb
e7
18
ff
fb
f2
03
0e
08
fb
03
17
e6
e7
f1
0e
fc
00
ff
fd
04
ff
fe
ff
ff
27
14
1b
0d
f9
00
03
00
f8
0c
0d
0f
fb
06
f9
10
16
2a
15
01
fd
05
e3
08
da
f7
05
ff
f5
e2
fc
ee
ff
00
0b
0c
f1
f6
04
2b
05
02
02
06
07
06
00
06
0b
1a
fd
29
07
05
fb
f6
f0
06
04
08
f5
ff
fe
10
08
1d
14
12
fe
14
f6
15
0b
f5
e3
fd
11
f9
f7
ed
f0
f5
ff
04
19
27
f3
25
f9
00
0d
fd
f6
06
f3
e7
03
fd
fd
0b
01
11
ff
05
06
16
07
f8
f5
e1
f5
10
f6
1a
13
ef
fa
f4
06
04
03
1d
2d
ea
e2
ef
e4
e8
01
df
da
f5
17
f9
05
ff
01
05
f9
19
0e
f3
fa
ec
04
0b
f9
f7
fe
e3
e0
c7
f2
03
02
34
f6
d1
f6
01
f7
ee
ce
02
05
06
02
06
08
e2
0a
1b
ef
d3
f9
da
e5
dc
fe
ea
ec
ff
03
10
02
0f
fe
e8
fd
02
fd
fc
fe
fc
fd
02
fa
de
d3
0a
0d
fd
fe
fd
01
ec
17
1b
f8
f7
04
17
04
fc
11
f7
f9
e3
ea
14
1c
20
01
02
f1
02
19
10
1c
ee
04
03
16
f1
0a
e0
02
04
08
eb
ee
ee
ed
07
05
fa
0f
19
0d
ff
fe
04
22
00
0a
ec
eb
f5
ff
f0
ec
e6
00
fb
e3
0c
fa
f4
f6
07
f0
fa
0c
0b
f4
ea
00
e4
f6
0a
ef
07
ec
07
08
04
16
0c
f5
fb
f2
f2
08
23
19
f8
e8
f0
fd
01
f8
e4
00
25
f6
e1
01
09
0e
11
25
00
1b
f8
14
ff
07
fa
f6
f8
f9
00
ff
f6
01
02
05
fc
fa
ee
07
f8
0f
07
ff
00
ff
fd
02
ff
ff
ff
fc
fc
11
f4
f3
fc
f6
0f
f7
04
25
f8
f3
07
0a
01
f4
23
2b
fc
00
fd
e9
f6
0c
fc
02
fd
f4
07
fc
f8
08
f9
f6
03
13
08
f1
fe
fc
00
01
0f
ec
f7
11
06
ff
fd
02
02
02
0d
18
fd
0b
ee
02
07
f7
f0
ec
00
0e
07
0e
0d
03
f2
05
00
e3
0a
0b
fe
f8
01
e6
05
e6
05
e3
f8
05
e4
01
0f
16
0e
f4
02
fe
0b
10
ee
08
fc
15
0c
0a
08
f2
0c
fb
f8
03
f4
ee
14
ea
06
fb
15
fc
00
f8
02
ff
27
f8
22
fd
0d
10
09
09
e2
24
f3
1a
fa
04
00
12
04
0d
02
f3
03
f9
19
1d
ed
d1
ff
01
f8
00
f0
03
f1
fc
02
ef
f0
03
ff
fe
07
08
f5
10
0e
fa
11
08
fa
16
fc
01
ed
08
fb
06
04
01
1e
1c
1d
0e
ff
fa
f9
10
0c
35
18
0b
ff
09
f5
14
16
f8
fe
01
20
00
0a
f6
da
f5
fe
e8
ec
04
09
f9
fc
08
13
02
fe
21
06
fe
f3
fa
f9
dd
ee
e8
f6
01
f3
10
f3
06
21
fb
ff
13
28
19
10
fe
ff
01
15
cd
1b
0c
0a
f4
0d
e5
2a
f6
23
15
15
0a
1d
f6
f6
f9
07
e3
0f
f2
06
e8
d4
f5
06
fa
0f
0b
0d
d6
01
ff
f8
f6
0f
13
0f
15
10
f2
ef
0f
07
0b
f2
02
f8
0a
f4
ee
ec
e8
ff
f9
e8
f6
fc
12
fd
f7
f3
12
de
f3
17
f5
05
00
fe
09
fc
f7
df
ea
00
fc
0a
1c
eb
fa
0d
fb
06
03
20
26
fc
ec
fc
fe
09
16
ec
24
eb
13
e7
ec
0c
df
ec
ef
01
fa
15
eb
f7
d4
e1
04
07
05
09
05
db
fb
09
d4
06
11
ff
f2
13
e0
ed
14
1d
01
fa
f6
2d
11
1a
02
dc
c5
05
c7
1a
ff
fc
f1
0d
f8
02
04
f4
fb
f5
01
fc
fe
f7
df
e7
fd
fc
00
01
00
0a
0e
14
ec
ff
ff
0c
1e
04
0c
0c
fb
02
ef
0b
f2
18
12
fc
00
e3
0d
08
1b
0e
fd
eb
2b
05
04
0c
16
fe
fe
f9
fd
0d
07
fa
00
00
09
16
1e
fe
0c
f7
01
0f
0f
11
08
f3
f6
01
24
ed
03
01
fa
de
01
16
02
1f
2d
01
f0
00
fa
03
fd
dd
ed
f2
01
00
f2
d6
ec
0d
01
00
00
ff
fd
fc
fd
fe
00
f6
11
ee
eb
f1
00
0c
05
f4
10
06
0f
f1
fc
0a
d2
19
15
25
10
11
ea
fe
f4
09
20
ef
06
0a
f9
f0
04
f6
ef
00
0b
17
08
01
ff
ff
fe
0d
0e
00
06
08
02
22
0f
17
04
e7
ef
ea
06
1d
11
f3
f2
f6
0a
11
2a
ee
25
2a
e1
f4
f2
f0
ea
0a
0d
d2
e7
f1
f3
f3
fa
00
06
e7
01
1c
0e
fb
01
0d
07
f5
04
f8
f6
02
fd
00
08
fe
eb
f7
fb
e6
f4
06
09
f7
e9
14
10
13
ff
07
04
03
17
eb
0d
ee
f7
23
15
10
ec
10
10
14
fd
0f
1f
1d
dc
03
1e
19
21
00
25
fa
00
00
f7
03
fe
fe
00
08
16
f7
fc
09
25
f7
0e
fc
0b
0c
09
1f
f7
f9
17
0c
fe
fd
e9
f4
08
fe
e8
07
02
fe
eb
06
06
f1
f6
f1
e6
fc
1f
d5
f4
15
dd
0f
fa
0d
04
15
fe
08
e2
04
06
e1
25
fd
de
f6
e8
09
07
01
f8
0a
f7
e4
03
f8
10
00
f8
ed
d5
f4
db
04
f3
02
10
17
de
de
fe
0f
f6
fb
fb
12
23
16
0d
16
f8
05
f2
ff
f6
09
0a
0f
fc
fe
06
e8
c2
32
0b
ff
ff
16
05
f1
10
11
03
fc
1c
0b
f7
23
10
fe
ff
0b
13
10
f3
fb
ff
05
fb
fe
19
0b
06
08
f7
fc
03
28
fd
14
f9
1c
1a
f6
09
22
1c
eb
2d
14
eb
0a
f1
2a
15
0f
27
03
eb
d0
f8
f0
fe
0d
1c
09
df
f9
f0
fd
23
26
20
1b
e7
f5
fd
f1
0b
e8
e4
f1
09
0d
f3
e3
03
05
01
f9
04
dc
15
0e
06
07
10
07
13
fe
e4
13
f6
0d
09
f3
16
07
03
e8
f7
01
0a
2e
09
fd
f4
ee
04
15
17
f6
ec
f1
e7
f8
f4
f8
01
09
d0
ee
e4
19
db
1d
17
f6
fe
fc
fd
fd
02
e6
fb
fc
fe
fd
17
09
02
e3
05
0a
11
1d
0e
fd
ec
fa
fc
ff
f7
f2
05
f6
ef
02
f2
0e
fe
0b
03
df
f6
06
f0
0d
fe
e9
e3
f4
37
1c
e6
fb
00
00
02
f5
f3
f5
fe
09
f5
00
f6
e7
18
0e
03
fb
18
07
04
1f
10
fb
e8
1b
14
e9
f4
f8
fb
ed
17
01
27
10
f7
f0
ed
0f
05
1d
fb
e9
e5
e7
f2
eb
fb
fe
ea
02
05
02
ed
de
fe
01
fd
00
ef
1c
f9
ec
bf
fe
0e
0f
20
f7
f0
eb
d8
0d
1c
12
ff
f5
f6
f9
09
07
09
e2
0e
00
09
0e
fc
fd
05
0a
0f
e8
0d
09
23
42
09
25
ff
13
00
00
00
f8
1b
06
00
ff
01
f9
0f
cf
f0
05
fd
f0
f4
fb
04
e9
f3
03
07
fa
fe
20
0e
00
04
ec
e9
06
0d
eb
03
02
fa
00
0e
ee
20
fe
03
fb
13
22
00
04
00
ff
0f
08
0e
ff
00
ff
00
ef
13
0e
06
f6
fb
00
08
05
ea
f5
fa
05
02
01
04
03
1a
ec
04
03
f1
f1
18
08
f8
f8
00
f2
13
fc
10
fb
f3
ff
08
fd
18
12
1e
06
01
00
f5
f0
e6
ff
00
03
25
04
0d
de
f0
01
f1
07
20
08
08
15
fd
01
01
f7
fe
23
fe
01
0c
c5
d4
10
e9
0e
01
02
1d
0f
df
08
fb
fe
ff
1f
0a
fd
04
fd
f7
ff
fd
07
0f
02
fe
02
f5
07
0b
0e
f1
ef
0f
e5
1a
fa
e0
0f
f2
f8
10
05
03
fb
01
fa
f6
07
f5
f5
10
07
26
06
00
fe
16
ec
09
00
06
07
1f
13
0d
13
01
1f
fe
f8
00
ff
ea
e7
03
02
05
03
e5
0e
df
06
01
02
f4
05
ff
00
13
06
f8
f3
fd
fe
f0
fe
00
e2
2c
1b
10
17
0a
f5
05
16
23
33
fa
02
01
fd
07
fa
f4
0b
ff
02
ff
14
05
ef
f5
00
01
f3
f0
0d
c9
e9
f5
fc
ed
03
f7
1a
f7
ed
17
04
0e
fc
2f
16
10
01
e5
dc
e1
13
f0
05
e9
fa
03
07
f8
1e
01
ff
1f
02
09
05
0d
fe
05
f1
10
11
e4
02
0c
fd
0d
fc
da
c6
e3
03
08
11
fd
c3
e7
08
06
15
09
1e
f0
d2
ff
f8
e9
ea
16
1d
f0
17
f5
0f
e9
17
22
2f
ff
06
e9
21
fe
1d
00
10
fd
06
05
0e
f3
ec
0b
00
fe
f0
f4
01
fb
00
09
ff
f1
fd
e9
22
1f
00
f5
04
04
08
ee
ee
f7
fa
fd
1e
ed
f4
f2
1e
fc
f5
f0
0f
07
0a
ea
fd
f3
08
0b
03
24
ef
f8
ff
06
e4
00
e7
fb
0a
fb
1d
04
d6
f7
f8
04
04
1a
ed
0c
e8
06
25
f6
fe
f7
ff
e2
ec
f5
e5
e1
fb
fa
12
fd
02
20
11
06
f1
05
06
f5
05
08
22
0d
f9
06
04
00
01
00
00
fe
01
02
04
05
fd
fc
fd
fe
05
04
01
01
03
02
01
02
02
ff
fe
04
03
03
ff
00
fe
03
ff
ff
ff
01
ff
02
01
03
00
02
00
ff
02
04
02
05
00
fc
ed
dc
01
fd
fe
14
ee
07
fa
ea
0b
fc
00
1b
18
df
f2
f7
ea
ec
1d
02
fd
e9
d8
05
f5
fe
0f
f2
04
01
10
fa
00
fe
02
1e
1c
f1
07
03
fc
18
15
0a
fd
06
07
fd
02
fb
05
f0
ed
f2
f0
cc
fb
ed
12
10
f6
d9
00
e3
fb
dd
07
ed
02
21
cd
f9
ee
14
fa
03
1b
08
05
08
02
ff
f8
e1
1a
1a
fa
fc
fe
fb
0a
0c
06
28
f9
0e
c6
00
08
f8
f3
fc
09
09
f2
ff
f4
0c
fc
01
e8
fa
14
0e
0e
03
13
fe
17
17
fb
03
fc
12
ed
0e
f0
f6
0b
fa
10
01
ec
fd
0e
ef
00
f2
11
00
0b
19
09
01
04
f9
04
13
fd
f9
fb
f3
02
15
01
16
06
f9
09
0b
ef
f5
df
ee
e8
fa
f9
f7
f9
f0
12
f1
11
14
09
24
d2
13
05
06
fa
e6
f4
ea
f9
0e
0b
f1
f7
ec
fe
d8
f3
ff
03
f3
fb
f8
ff
fe
01
0a
15
00
0a
df
0d
fd
01
1b
07
06
0a
fe
0a
06
e6
f3
0f
0e
ed
01
fc
e5
08
e1
ff
09
f6
ff
04
07
fc
ff
01
fb
28
03
e6
f9
0c
f3
fe
0a
13
f7
16
00
ff
03
11
05
12
0a
f6
fd
14
e5
f3
ff
1f
ef
01
05
0e
0a
12
07
fe
0f
17
fe
ec
09
fd
f1
05
00
e0
e0
17
03
06
e9
03
06
e7
f6
fb
24
0a
ff
ff
fc
f4
0c
f8
fc
0f
12
ff
03
06
f8
ea
03
05
ee
09
1b
0e
fd
0e
f2
e6
0f
35
e9
fc
02
e4
d7
fd
fa
ee
00
03
0e
0e
0b
04
18
f3
f2
27
1a
fc
02
fa
fd
00
ff
00
01
00
ff
01
05
00
fc
05
0b
02
00
06
04
fd
fd
fc
fd
fb
04
08
03
04
04
03
fd
03
05
02
02
fb
01
00
01
04
fc
fd
f7
ff
fe
07
05
07
02
00
04
fd
05
0a
e3
f7
fd
13
02
f3
f6
05
f1
ef
0d
0e
0f
f7
f6
f9
fd
f0
05
24
ff
fa
0a
ff
ea
12
01
08
00
e3
e3
f6
fa
f1
04
0b
fc
e6
1a
ee
13
f6
1e
19
fd
26
0a
02
0e
28
f9
df
fd
12
14
01
ec
de
ec
f0
09
d8
08
f2
05
11
e1
0b
0e
29
08
f7
e2
ef
01
0d
f9
08
e9
12
14
f4
f8
fd
0f
0e
1d
ff
07
03
1d
14
0d
11
f8
0c
02
02
01
fa
fb
fd
00
05
0d
12
44
07
f0
01
02
ff
13
0b
17
fb
fd
02
09
ff
f1
1d
f8
fe
01
03
22
12
07
08
02
01
fd
00
15
16
1f
00
02
ff
33
e3
f7
fa
02
f6
12
ff
08
04
fc
02
05
d7
27
f6
ff
f4
f5
01
03
fd
fb
0c
e4
e7
1a
11
f3
0e
0d
ee
fb
fa
e7
17
ef
08
13
fd
f4
f1
19
13
09
12
f1
08
0c
27
1e
fa
ed
04
09
ec
00
18
08
08
01
11
05
f7
00
e1
d0
f5
f3
0f
1f
0c
e9
e0
e6
1a
f8
f0
fb
34
0d
f4
10
f9
f0
ff
17
d7
f6
d3
d6
e4
e5
e8
f0
e6
0a
06
0f
05
0d
f8
f1
01
04
f0
f4
bd
fc
e7
19
06
33
13
f4
de
f1
21
17
19
01
ff
e1
f3
0a
1b
f3
0a
0e
d9
e3
e0
e9
0a
2a
f3
da
eb
db
ef
f3
fe
f8
f0
e7
13
19
ff
f6
ee
01
e4
01
02
fc
f4
e3
08
00
04
02
ec
06
dc
e3
05
fc
0c
ed
ec
fb
e9
06
0c
1a
eb
f5
1c
fb
01
1b
fa
15
eb
23
03
00
00
d5
14
fe
25
20
fd
02
1b
2b
2a
e8
ff
01
18
0a
0a
08
06
0b
04
10
29
09
ee
f4
ee
f1
0c
0c
0d
d8
d7
f6
f4
fa
08
0a
f9
06
e4
ec
f2
10
f9
fc
1c
e3
01
05
ff
08
f2
f8
f1
f3
fb
f3
f6
ff
00
1d
ea
ff
0d
ea
fe
f2
ea
fd
02
09
0a
16
03
ff
ff
ff
f1
d9
01
25
14
03
05
e5
e6
32
1b
ed
fe
0a
e8
f8
fd
02
12
fe
0d
f4
08
fa
11
22
02
ff
f8
fb
fd
09
04
03
ff
fd
fb
e0
0a
fa
01
fd
fc
ff
13
09
00
e2
07
f9
07
0f
20
1a
f9
03
0d
02
f1
1d
0a
e6
07
05
da
dc
26
10
0c
01
01
08
0f
01
07
ed
03
08
24
0c
fc
07
01
ff
fa
04
f6
06
e0
ec
09
f1
0c
e7
e6
e8
d2
f9
ff
f6
0d
42
15
0e
27
fe
fe
0c
07
ef
e7
e0
e8
ed
fe
00
1d
fe
d3
01
12
0a
0c
09
03
1b
06
2d
0a
01
e1
f0
05
07
dc
05
11
13
00
fa
02
ed
0b
1e
06
09
10
0d
10
fc
fa
07
e9
06
09
13
e6
0d
ee
f5
0c
15
03
e1
f4
f7
f0
02
02
ee
fc
f2
f1
db
05
05
ea
0f
fe
32
03
09
04
0c
fd
00
09
00
15
10
d4
f8
dd
e7
f2
04
03
14
ec
1c
01
0c
f9
e9
01
f4
14
17
e0
e1
ff
e3
d7
23
01
ed
04
d0
0b
ed
1c
f4
f9
f8
f8
0a
30
05
04
f8
fe
ff
01
ff
fe
01
02
02
01
01
fe
fe
02
02
ff
01
01
01
ff
fd
02
02
00
fe
ff
01
fd
ff
ff
01
ff
fe
ff
ff
01
fe
02
00
01
ff
fe
02
01
fe
01
00
fe
ff
fe
08
04
ea
f3
00
df
fc
18
f9
11
19
10
01
04
1a
2c
1b
04
ed
e2
ea
1e
f7
ed
e4
0b
00
de
15
fd
fd
f6
00
01
f3
0a
05
f5
0e
fc
ce
e6
e2
1c
09
de
db
ec
01
f4
f8
09
f5
f6
e5
ee
f2
f7
d1
10
0c
f5
f5
eb
d3
16
fb
1d
2d
13
e6
f8
09
05
04
0d
ce
ee
0b
f7
f5
06
02
0d
e9
ed
e0
13
15
07
f0
01
01
18
11
1d
3f
de
00
f8
0a
ed
0e
f4
fb
fa
fd
ec
11
09
0c
05
0a
08
0b
0c
12
ef
fb
fe
26
f9
f8
f1
ec
da
0c
f7
1a
f5
0e
04
f0
12
04
f4
11
d7
dd
ed
05
09
0b
f9
df
20
03
01
02
f5
00
fa
11
07
fe
ed
fa
06
0b
07
fb
08
f3
0b
ef
f9
fc
f4
05
06
fa
13
16
ea
f7
fd
f3
de
ef
eb
db
1b
fc
0f
1d
0f
0b
e8
ff
02
e9
ec
07
e3
f5
ff
ff
01
ff
fc
fd
01
00
00
03
ec
eb
fd
f0
f4
f0
e2
f8
dc
12
02
fc
fc
15
f4
31
1a
e5
f6
04
e0
ed
f7
0f
d7
f9
fa
0a
fc
f2
11
0a
03
f9
f1
fc
00
24
f8
03
00
02
01
f9
fb
02
ff
09
04
f5
f9
db
fa
f6
06
fb
0d
0f
fc
fc
00
fc
20
19
df
0a
00
03
01
f2
fc
01
f6
fb
ff
00
fb
ee
0a
f2
0c
fc
00
f8
11
20
08
f5
00
18
fc
f8
00
f4
fd
07
03
05
e9
14
0c
fe
f0
08
03
ff
00
0f
19
06
19
06
1e
0b
e6
08
00
ff
16
f5
ed
09
14
f8
0f
f8
d2
cb
f9
10
0e
e1
f9
02
fd
f9
f1
00
03
0f
f9
f5
0a
02
0d
fc
f5
fc
24
f9
02
09
fb
0e
f1
19
de
02
fe
f8
ec
f8
1b
06
10
1b
09
00
09
01
0c
01
f6
0a
16
e8
de
ef
03
01
fe
15
02
fc
09
f2
fc
f8
01
fb
ff
f0
fc
01
02
13
f8
e5
07
fe
fd
f9
04
0f
05
01
fb
fe
07
df
0c
04
09
0b
ff
fb
02
0a
2c
21
02
08
08
19
11
38
47
07
03
f9
e0
00
d6
e7
03
01
00
f9
f0
00
e7
0d
15
08
05
f2
fc
fa
ff
02
08
2a
f9
f2
12
16
14
04
1e
0a
f4
08
06
eb
f4
fb
ec
1c
07
1f
12
f6
d9
d9
dc
d6
08
ff
ff
f4
f9
fd
f3
04
0b
fe
df
f5
f5
05
e5
f9
0f
fd
1a
f8
05
14
e5
e7
0b
0c
0f
f6
e6
e6
fa
0a
13
ec
04
04
e7
ff
03
f6
ec
f5
0a
e3
fe
e9
ed
19
07
18
de
ff
ed
01
1d
04
ea
fe
02
ff
05
04
00
fe
00
fb
f7
f6
f1
fb
04
fb
07
13
f6
10
f7
25
06
04
24
11
12
28
08
09
f1
0d
0b
fe
fe
13
fc
07
03
ed
cd
ec
04
fc
fc
f2
ce
e5
03
fb
fe
02
fd
fe
ef
ee
04
08
0a
f8
fc
e6
f6
04
0c
04
f2
10
ee
cf
00
0e
07
fb
1d
f6
ed
00
e4
fe
00
08
fe
09
f9
ed
00
02
03
fb
11
fd
f9
fb
02
fb
1b
19
fc
f9
01
f5
e3
10
ec
ff
00
13
fd
eb
0c
04
28
09
f9
ea
07
e2
0a
fe
0b
ff
fe
11
17
06
f6
05
fe
f6
ea
fd
fc
12
0c
fa
f0
fd
f3
eb
0a
09
01
09
ee
07
0b
04
01
ff
e5
e1
e6
fe
1a
fd
ff
ea
ed
05
ff
01
0e
09
ee
0a
0a
ec
0d
10
ff
f0
04
07
f2
01
f5
fd
eb
ff
e9
f3
08
f4
fa
ef
e0
1e
1a
01
fa
06
10
23
37
21
06
03
ff
01
ef
f8
01
fe
fe
fc
11
ee
f0
ec
0e
fc
ef
fc
21
fc
f8
13
fb
f8
01
15
ea
06
06
05
0d
0a
e8
08
0c
ef
f8
ef
e8
18
df
e2
03
01
00
1b
09
fc
ec
ef
fc
04
08
ed
fb
e8
05
fd
03
f1
19
ff
fc
09
0b
13
15
f0
ea
d7
06
ed
1a
f9
18
ee
c2
f0
f6
ea
ee
c7
e9
e1
ee
ed
0a
0c
e2
f8
05
fe
ec
fd
18
22
03
00
1d
1f
f2
00
f2
fb
e3
f5
04
fa
f1
fa
f1
e8
10
fe
01
fd
14
ec
0e
f7
fa
ff
d9
f5
00
17
11
02
ff
e5
f4
1b
0d
10
10
05
13
09
1e
2c
fb
fb
f4
f6
02
06
fd
ec
f9
fe
df
fd
fe
f4
16
05
fe
08
17
10
15
0e
1b
0d
fe
d9
c3
0b
2c
fa
fb
ff
fb
e2
07
ed
2b
f7
35
0c
00
e2
fd
f3
14
f2
ee
bf
c0
c9
e4
dc
fe
0a
db
e4
05
f5
02
fd
f8
f4
01
fe
02
01
d8
f0
fa
0f
f7
ff
fc
e6
08
16
0b
05
03
ff
ea
0c
e7
0e
07
02
03
00
e7
0c
19
10
fd
fe
ec
23
1c
3c
03
fe
fb
03
f1
03
d8
f9
ff
01
f9
06
01
ed
fc
02
01
ff
e7
f8
03
03
fa
02
f8
f1
12
08
03
fc
ff
fd
f3
06
f3
fb
fa
00
ea
09
2c
0a
ee
08
00
f2
f7
13
05
e0
fa
02
f9
d4
f1
e3
08
01
01
02
03
ff
fc
fe
00
04
04
dc
fa
e8
f9
f1
0a
ea
01
07
e4
18
13
02
2a
f7
17
2e
ec
12
03
fd
28
14
13
fb
f8
ff
ef
f2
fe
f9
ee
ff
03
03
fd
fc
00
02
00
0c
09
03
0e
16
03
04
f1
08
11
11
01
0c
00
00
f8
15
05
f6
02
01
08
1d
fc
f8
12
27
0d
03
1a
f9
ed
f9
09
fa
0e
14
fe
d3
eb
05
08
ef
08
fa
fa
d0
e8
03
f7
00
02
f7
fa
fa
ff
00
fc
08
0b
09
fd
03
fd
0f
01
02
f0
eb
1a
0f
d4
12
04
08
ef
04
01
f8
1b
1f
04
f6
e0
e9
fb
0e
17
1e
e8
fb
f2
f8
00
0f
f7
f0
01
00
02
00
f8
fd
00
01
05
0b
ee
fc
02
10
15
0d
f3
0d
de
f3
0c
0e
08
17
25
1a
e0
fd
e4
04
ec
0f
01
ef
e9
f4
fd
f9
f6
f6
fa
de
11
e6
f2
05
08
dc
fc
00
f3
f6
db
0c
ec
fd
f9
03
f6
f0
18
fd
12
22
ff
02
0a
05
03
0d
f8
17
02
f7
bd
13
2c
08
12
05
0a
09
0c
e9
d6
06
2c
fa
10
e7
eb
f6
ee
f9
fa
ed
e7
ed
ff
f5
18
f0
08
f3
04
07
fe
03
fe
fb
00
f5
fc
02
00
1c
05
18
ea
ff
05
d4
0c
e2
1a
10
01
01
0c
f5
1e
20
0d
fc
01
15
10
11
1d
f0
f6
fb
e7
ee
08
19
e3
f8
18
17
05
f8
05
0f
07
01
fa
f7
e7
eb
fc
11
0d
fe
f2
e1
e8
18
fb
1e
36
2a
0b
d8
03
ed
06
16
e1
d3
07
10
08
1c
fd
f3
e8
0f
22
03
e3
f4
f9
1e
40
17
14
ec
fa
0d
f5
04
f7
02
17
15
f0
e6
04
0f
ff
fa
0b
f5
e8
ff
0f
17
12
0d
1a
f0
db
ea
fc
f1
0a
ef
d9
f4
06
02
fd
f6
f6
f0
0c
0b
ed
f2
e4
ce
23
0c
fa
f8
f8
fb
fc
f7
f6
f7
f6
00
f2
04
16
01
f4
06
02
1f
11
08
fe
0f
13
0b
21
24
fc
31
27
fd
e5
e9
fd
fd
09
17
f8
fb
fa
f4
03
02
ec
03
f2
d1
ce
d7
00
e8
fa
01
e5
fa
f1
ed
fe
ea
ff
e8
07
05
0b
0d
17
02
fe
f6
f4
fe
e9
ef
fb
2c
2a
00
06
f9
fb
f4
11
2b
f0
07
15
00
df
0f
1a
ee
06
06
f8
fc
f1
03
fd
fb
18
fc
01
db
f2
e7
11
06
02
ec
f6
f3
05
0c
f9
f4
04
06
08
23
1e
17
f7
ee
fa
f3
0b
ff
0b
f6
ed
fe
f1
06
03
0f
f4
03
f0
15
0a
f1
0a
f3
02
04
11
fa
f8
09
fa
02
00
00
01
f3
0b
ff
01
17
f4
07
ec
01
13
06
0f
17
02
e3
04
02
00
0d
04
fc
0e
14
05
fb
14
0c
23
1a
ce
02
02
09
2a
20
fb
f6
ff
fe
e0
00
00
03
f8
ff
02
0b
00
05
01
ff
00
00
04
eb
fb
e6
fe
00
01
02
10
0a
e9
fa
12
01
ea
fd
0c
ec
16
01
00
f4
f9
05
e6
14
f9
fd
e6
f0
fe
fe
01
f3
04
03
14
26
f8
08
02
00
00
f1
fc
ec
0e
00
03
06
12
f0
eb
f8
16
05
1e
0f
f9
1a
f6
06
fd
f5
1c
07
fc
ef
05
fd
2b
3b
03
e0
eb
01
fe
fb
f7
f8
e5
03
00
fe
13
0f
ec
0b
01
05
02
00
f2
f9
e8
f9
01
f9
f5
05
ef
0a
1b
0c
f1
10
17
fc
18
0f
f6
15
fb
04
13
18
00
f6
f8
0c
0f
1c
11
e9
fd
ff
0f
10
08
f3
0a
fa
fe
fd
28
ff
08
ff
fa
02
f2
fe
fc
f2
eb
0e
fe
05
f7
ef
e5
05
15
08
ea
fa
e0
f9
11
fd
06
fd
e5
ef
0c
03
f7
02
31
f7
0e
f7
fc
03
fe
db
f7
14
08
ec
03
01
f3
ee
0f
ba
f7
fe
00
ff
f6
fa
e6
e7
01
00
08
db
f4
e6
0b
06
f2
05
16
06
f9
02
f7
04
fc
fe
e1
16
14
00
0b
0a
0e
33
05
d5
f6
f9
03
21
ea
e2
e7
04
fc
13
f8
ec
f6
f0
00
00
e2
fa
f9
1e
08
fc
06
fb
06
fb
15
17
09
13
0a
f4
ff
19
10
f7
e7
e3
da
f0
f0
00
f3
01
1e
de
22
fa
fd
f2
21
13
10
2b
fb
07
ff
ef
09
05
09
0d
fc
fe
09
00
e0
f7
e2
f7
0d
00
01
08
15
0f
ff
20
00
f1
ff
0c
23
01
05
09
d4
eb
fd
07
12
fa
fd
e6
f1
eb
06
0e
ed
04
e7
24
15
ef
f8
f7
03
18
20
15
1d
f6
fa
0e
02
e4
1f
f3
0c
fa
05
f7
00
12
f2
14
fe
fe
ee
0f
07
f4
12
1c
0b
13
ef
ee
1a
0c
05
ff
0f
2d
1d
02
ec
ec
0a
fc
06
f3
f0
dc
fb
e5
fe
f8
f5
e0
f9
fe
00
02
02
fd
fd
fe
fe
ff
03
03
01
ff
fd
ff
02
04
00
01
03
00
02
01
00
fd
03
ff
00
01
fe
ff
01
01
01
01
ff
fe
00
03
03
00
03
ff
01
01
00
fe
02
fe
00
fd
d3
e9
e4
15
fd
fb
01
00
f2
0b
10
0e
fc
13
03
fe
21
fc
fa
e6
ea
fc
fe
ff
0b
fe
f0
f3
09
fd
0b
0c
0e
f0
f2
f6
2d
1b
e1
07
fa
04
e4
0b
03
f7
15
00
ee
ee
df
04
03
0a
fd
f7
e2
0d
0e
00
09
14
f7
e2
00
f6
13
11
fd
f6
dd
11
eb
dd
15
f6
03
fe
fd
06
ee
16
06
fa
0b
04
2a
1a
f1
0a
00
f9
03
fa
f4
e4
fa
00
de
06
de
10
ee
02
ff
f1
f9
f2
f6
11
01
f6
16
0d
f7
eb
f0
f7
07
fe
13
ef
f3
f9
06
f4
09
f3
f3
f8
0b
03
ee
da
df
03
0a
06
ff
00
ec
03
fc
09
fa
00
09
ff
ee
0b
f4
0a
08
ef
0e
10
02
00
0f
12
05
13
0f
d7
fa
23
02
fd
1e
11
ed
ea
f3
ee
27
e0
cc
c6
cf
0f
f6
08
d4
95
a8
ef
de
fc
11
03
0b
25
05
05
fa
01
ff
01
fd
fe
08
02
0e
0d
f2
f7
f1
f3
ef
03
15
20
01
ef
f6
e8
0d
26
0d
09
22
ed
ea
07
e2
00
ed
07
fe
fb
f4
f8
de
e0
00
0e
0a
fc
e3
c1
d9
0d
fa
fb
00
01
05
ed
f9
f5
06
fe
15
eb
f0
04
fe
ec
f3
03
20
0c
0f
f4
d6
02
fc
f5
01
20
1f
f3
05
ee
06
03
2c
00
0c
f0
fc
05
2f
2a
0c
0e
fa
f8
fa
eb
17
f4
fa
fe
02
f9
07
e1
f4
00
03
f9
10
17
07
11
fa
fd
f8
05
ed
09
fd
fe
ff
f0
ee
23
07
11
06
fd
06
11
fa
fe
eb
f9
0e
1e
e6
04
0a
f5
f6
e3
21
10
f8
05
fd
ff
04
06
07
05
08
09
02
07
06
09
fe
fb
f9
fd
07
0a
05
fc
04
fb
fe
06
02
08
02
f7
01
fe
05
fc
00
f8
f9
09
ff
08
fb
f9
f9
fc
00
fd
06
fd
fe
fa
01
09
ff
ff
f9
ff
fa
ec
06
fa
f7
e2
fc
13
ce
f1
fa
fd
f9
ff
29
05
fb
13
04
dd
09
1b
06
1a
f5
03
f3
ef
e3
eb
1e
f2
f9
c9
f9
09
fc
0c
f4
fc
ee
0c
31
06
06
fb
02
e6
e8
e6
ff
05
ff
07
c8
e9
0c
10
1d
ec
db
f2
06
13
15
09
f7
fe
02
e5
08
0f
10
f2
00
ff
ff
00
05
14
fc
f4
0c
23
10
16
15
f0
06
1d
02
24
f0
f4
e8
ff
01
fb
00
f1
01
00
00
fd
fb
15
07
f1
01
03
05
04
f2
fe
fe
fb
03
f4
fa
0f
fa
f4
ff
01
eb
0a
08
03
0f
02
fa
d6
eb
09
fb
fb
fb
00
01
06
f0
f2
f5
ff
f3
02
e6
09
f7
e7
00
fe
db
ee
ff
04
05
0f
eb
f6
07
09
2a
0a
0f
07
f8
ee
f8
33
12
f6
05
02
08
1e
0c
e6
fb
09
07
28
07
f4
e5
03
eb
16
f2
17
e1
e6
f8
0e
03
02
08
0f
20
1a
09
01
fe
00
09
25
1d
f1
fd
f6
0a
f9
00
f4
1c
f9
01
ee
f7
1c
13
f4
ec
f2
e4
0a
0f
f5
22
0f
ee
e1
f1
0d
14
f2
19
fd
ea
10
f8
02
04
f1
f8
e4
02
07
f7
02
f7
25
2a
0b
fd
f3
09
12
0f
0e
fc
f1
fe
16
13
12
fe
29
17
02
07
11
fb
f9
00
04
e8
18
12
08
f6
ee
f5
f3
e7
e8
ea
e4
ce
e4
ee
ff
ff
e4
f6
da
0b
02
ff
f1
ed
18
f7
18
04
05
ec
0d
e6
0f
03
0d
10
f8
fc
0a
0e
fa
0c
f8
f2
df
ee
fd
14
0d
01
0d
ff
17
ed
00
0d
01
19
fc
03
03
fc
09
06
03
07
11
08
00
00
ff
00
17
ee
f5
f9
0c
fa
fe
f6
eb
e8
f9
f7
22
3f
39
17
16
0b
f3
0f
15
ee
eb
10
11
0d
01
00
f1
da
04
1a
06
fb
e9
e4
e1
ff
0f
01
ff
fe
ef
ee
dc
12
fd
fe
08
f6
fd
06
24
ff
fe
0e
f5
e1
f5
f9
fc
03
f9
31
40
fa
f9
02
02
0f
01
fe
02
08
01
fc
f2
ed
0e
f5
fc
ff
fe
01
f4
18
ed
05
fc
fb
fb
fd
fb
06
fb
00
04
f2
17
21
11
11
f5
04
d2
18
13
02
0d
2c
02
03
fa
e3
06
f5
01
fd
04
f6
fa
11
02
0e
fd
12
1f
13
f8
dd
f2
00
0c
d6
f5
09
f7
00
ff
ec
eb
03
e2
ec
0e
00
e2
0a
09
ea
09
e7
db
da
17
f6
0d
0b
0b
13
f0
dd
ef
1d
08
fe
23
0e
33
20
f5
e1
fd
12
32
03
f2
e9
ce
fe
dc
04
fd
00
c6
ee
f2
0e
fb
e7
ff
ef
fb
f1
ff
f2
fe
f7
f1
00
0a
03
2b
24
14
d5
fb
0c
0f
df
1f
f4
e6
f2
d0
02
d2
11
00
f3
eb
f3
fa
e7
f0
ea
05
14
05
04
f4
fc
fe
08
fb
f0
02
f3
0f
fa
10
ff
fd
02
0d
13
0b
fc
e6
08
de
ee
d4
14
dc
f8
18
04
e6
f6
dc
fe
17
0c
01
ee
fa
d1
fe
0e
e6
01
12
07
f8
ed
f3
f5
fe
01
0c
19
04
de
f4
02
00
ff
fe
05
00
01
01
01
00
01
01
ff
fe
00
02
00
01
02
02
00
ff
ff
ff
00
01
01
ff
00
00
01
fe
ff
02
00
02
02
ff
00
02
ff
fe
ff
00
02
ff
00
01
fe
ff
e7
f1
0c
fa
fd
06
09
01
fd
00
01
09
08
0a
23
0f
0d
13
06
02
f7
04
20
ef
17
0b
e7
eb
15
0c
02
0d
37
00
f5
dc
f7
f4
1e
05
05
fc
d8
cf
cf
dd
ee
f4
f4
f0
e9
00
07
d4
e7
fa
ee
f6
09
f8
08
09
f8
e8
0b
01
0d
1f
09
fb
de
f0
d5
0d
13
e6
f4
ff
dc
e0
f7
01
db
f9
fd
0c
0e
0c
eb
f7
fd
11
3b
0f
27
de
f8
01
fc
03
f7
06
ee
f0
08
fb
eb
09
03
f4
01
00
23
12
f3
ee
f8
12
1f
24
2c
0b
19
00
03
0a
e0
15
f6
fd
1f
f2
05
de
ed
f1
03
0c
15
01
ee
e6
fd
e2
ee
03
ff
02
ff
0a
00
01
02
01
0a
12
f1
14
ea
f6
03
0f
fc
f6
d9
f7
f5
03
0a
f0
ef
fe
04
01
01
1b
0a
fc
04
03
17
03
00
ef
f7
d8
ec
f7
00
ff
f7
fa
f7
fc
fc
02
ff
01
00
05
ff
01
01
f0
f5
d6
fb
fb
06
fc
03
1c
f1
eb
f5
fa
01
fa
f8
ff
f4
09
14
00
03
f3
f2
fb
1d
ea
01
0a
ec
f6
e8
f9
e1
fc
0c
00
fd
01
04
fb
00
ff
04
fd
fd
01
02
07
15
16
18
06
1b
01
0f
00
fb
fe
f4
f1
fd
17
0c
0e
f8
ff
0a
ff
01
07
16
10
04
09
00
0c
ef
e1
ee
c4
f4
f1
00
00
fb
fe
09
0c
fe
fe
00
ed
eb
e1
f6
e0
fc
ff
fd
02
f0
15
f5
fb
06
ee
ee
1a
10
07
05
ff
09
1d
f8
ee
0c
0e
f6
f7
f6
1b
18
1a
17
1f
1e
12
08
16
08
fb
fd
f2
f6
e2
e9
e6
f5
fd
f7
00
0d
f9
f3
fb
ef
e8
fa
f1
f3
f3
f8
04
e2
e8
e8
f9
ea
07
05
07
f7
f0
f3
04
07
01
fa
07
29
18
20
10
02
15
fd
0e
02
18
01
e3
e1
f4
df
f9
ef
06
ff
02
f1
08
fd
01
fe
07
0a
02
f7
fd
05
13
ff
f4
f2
ec
e5
00
02
13
10
01
f8
e5
fe
0c
0a
e6
d4
db
01
f6
04
f9
e0
d8
ef
0e
f3
fe
f1
1b
ee
f9
e0
fe
ff
05
00
f6
10
f3
00
0b
f8
f5
ed
e8
03
ed
fe
0a
13
0c
17
27
05
06
1b
11
e3
fb
0d
0f
0d
0e
0e
03
fd
0a
10
00
02
08
02
fc
fa
f9
fb
f3
f4
fa
e8
f2
03
ff
0a
f8
fc
f8
eb
12
ff
0c
14
0a
e9
10
0e
08
f9
0e
17
f9
1f
07
10
0a
f1
fb
0b
f4
fa
ff
09
05
1a
00
ee
07
05
fe
f7
e5
ec
ff
0e
01
ea
e9
f1
0f
07
fe
fe
ff
01
ff
ff
01
02
00
ee
f4
f7
03
fa
ff
f7
fe
02
e4
f3
dd
03
ee
ed
fe
08
f2
0f
00
11
06
1d
0d
07
17
10
19
f4
ed
ea
ee
f6
f6
02
00
fa
f9
0a
fb
ff
01
f9
ff
ef
03
f8
01
fc
04
0d
f7
fd
11
06
00
07
1b
21
f8
05
ed
0e
07
1a
dd
e8
fb
ff
01
13
fc
e8
e4
f3
02
fd
ff
f2
ee
f3
f0
f0
fe
fa
f1
f0
e8
15
fb
02
05
ff
de
fa
f9
03
fc
07
ff
fe
fd
f2
0c
06
0a
fe
07
ff
f0
0e
0d
fc
fb
f2
03
eb
06
00
07
0d
fc
0b
e6
0a
fe
08
e2
e0
ed
00
19
ff
01
fa
fc
08
fe
01
11
fd
ea
d7
ed
f6
0e
0c
fb
f3
e8
eb
fa
1a
15
ff
fb
fd
fa
f8
1b
10
0e
07
f9
f4
ff
11
0d
06
fc
ce
f2
dd
fa
08
16
f1
d9
e8
f2
fb
16
12
ee
fa
ef
fd
0e
02
03
f8
fc
ff
f9
00
fe
e1
fa
ec
ec
04
fc
0d
03
fd
ec
09
01
fa
1a
fd
e9
e9
f1
43
03
04
fe
ff
f4
ef
19
11
04
ff
ef
0d
f4
f6
01
fa
fe
10
0b
f8
f2
01
fa
fc
eb
e9
e4
09
ea
ed
08
02
14
fd
f1
0b
f8
e3
22
0a
2a
18
18
08
e1
2c
fe
10
ed
0a
fe
05
13
03
fd
e5
f4
00
f7
04
db
e4
df
0c
ff
d9
f1
e6
ee
0b
06
08
09
fb
d9
f4
f1
ff
0d
01
07
09
fd
f8
f6
08
08
04
05
eb
e8
09
03
0c
f6
0a
fa
f5
02
01
05
16
f2
e0
df
14
01
0f
04
d2
cc
ec
de
01
03
fe
fb
eb
04
ec
04
f6
e2
f0
d0
d8
e4
01
0a
ed
00
f2
f7
fd
22
f7
1c
0d
f9
ff
12
ef
1a
00
18
1c
1a
1f
0a
f1
ec
10
f9
06
14
f1
03
1c
00
ef
fd
ff
10
fa
f4
f8
fa
ff
f3
01
03
04
f9
00
00
fe
ff
00
ff
e9
fd
fd
00
02
00
02
e3
f4
f6
03
09
0e
17
e2
fd
fd
06
05
16
1c
ec
f8
e7
fc
01
02
ed
e8
e8
fd
f5
01
ea
e8
f8
07
f8
fe
ff
04
fe
f4
fb
01
00
03
f7
19
f2
00
fb
f0
03
10
17
e4
e8
19
fe
06
fc
00
db
e9
f5
15
ff
03
01
e5
db
e6
f0
01
0f
e9
eb
f8
ed
00
ff
fc
02
f7
ea
03
02
fb
ff
01
fd
fd
ff
01
01
f1
f3
ff
0e
eb
fe
03
02
f7
eb
ef
e0
f6
0f
f3
04
ff
ff
09
fc
07
09
19
ee
f0
01
04
04
04
ed
ea
f0
04
f0
fd
ff
00
f9
00
07
01
05
04
fa
0f
02
f8
08
fa
fe
f7
01
f5
e3
0c
f1
ff
e8
fb
1a
e9
ef
f2
fc
f2
0e
f6
17
0e
0f
17
1a
1f
21
1f
1f
17
e4
f7
e9
e5
fd
fd
f7
e9
f0
e5
ec
e1
05
f8
fe
04
fe
03
fa
fe
01
0d
ed
e2
14
14
ff
05
0e
eb
0f
f4
f2
f3
f7
ec
18
fa
f2
e4
2a
f4
07
fb
de
e9
dc
14
fd
08
00
fd
da
f7
dc
fd
fe
00
f4
ef
1f
fa
01
00
00
0b
fe
fc
fd
03
e8
f1
f9
fe
08
f5
04
21
fc
19
0c
f9
08
04
f6
05
f5
01
06
0d
06
0a
05
11
f2
05
0a
04
0c
ec
fe
0d
04
dd
ff
04
f6
f7
f3
12
05
11
fe
fa
f4
fd
fa
07
fe
f7
e7
00
f3
e6
e5
0c
0a
e2
f3
e5
e4
0d
04
17
f5
f3
e8
28
08
f5
12
fa
ed
ff
e4
f3
00
e0
e2
f5
d6
f7
fd
01
fa
11
01
ee
ed
fe
f6
ff
fe
f4
0c
fc
fe
01
ff
0c
12
f7
00
f9
fe
16
ff
f7
dd
f8
fc
00
f0
08
07
db
f7
fc
00
14
17
f5
f3
fa
f9
ff
fa
e3
dc
db
f7
f8
00
fd
eb
fe
f8
03
fd
fc
09
fe
02
e1
05
d6
de
e4
04
14
0a
e5
0b
00
03
fa
0e
0f
03
07
12
f7
f7
f2
1e
0b
04
fb
12
1d
15
05
1f
1b
e2
01
0c
fb
04
0b
19
f2
f6
e8
da
d6
fc
eb
07
fa
f1
fe
f0
f3
fb
0b
f7
f4
dd
fa
f2
ef
15
ef
2c
17
06
16
d7
10
f8
dc
fd
0b
15
e9
fe
fe
14
19
19
11
14
02
e4
d7
e6
e2
12
21
0a
fd
f1
ec
fc
fc
fb
05
06
08
06
07
06
06
0e
15
07
eb
f9
fa
0c
01
0a
09
10
13
fc
f3
16
f2
ef
ee
f7
1e
1d
15
0f
0e
24
1e
19
22
02
f9
f4
df
ea
fb
0b
07
1a
08
0d
00
1c
07
00
fa
e8
10
f5
f7
f9
12
fe
f5
ff
0c
f3
fe
08
ed
18
fd
fd
32
fc
1f
ff
fa
f1
10
18
09
ff
14
0a
02
f6
12
1a
05
05
08
0a
0b
fb
03
ff
fe
e9
f2
f2
14
fd
02
ed
f5
f7
fb
03
01
04
ef
f3
df
e9
e9
f7
0d
fc
fd
ff
df
0a
f9
0e
0b
fb
e3
ec
f1
ee
07
ff
06
f9
f2
ee
ee
0b
e5
d8
e0
f9
ea
ef
03
f3
01
ef
fd
f9
fa
00
fe
06
07
04
01
fd
fe
03
0e
00
dd
02
fe
04
06
e1
e9
ea
10
f5
00
02
14
e0
f7
fb
ec
fa
f7
fc
fc
fb
08
f8
00
0b
d3
fe
f5
04
02
fd
f5
0f
16
f6
fb
01
00
fc
fd
fd
fb
ff
ff
ff
f2
10
18
fb
fc
00
fe
f7
05
fc
e3
eb
03
00
12
02
eb
f6
f7
0f
01
19
ff
03
fa
e5
fc
fe
1b
fd
10
dc
f2
ec
02
fe
02
eb
f0
02
f8
01
fb
00
ec
04
00
00
00
12
0a
cb
ec
d9
fd
04
0e
fe
12
10
f5
00
02
fa
00
09
fa
16
04
03
0b
e2
f6
fa
16
fe
fe
ea
e8
f4
fb
f7
ff
ff
1d
0a
fe
01
fc
f5
01
fc
02
f3
07
ff
ff
fe
0b
fc
cb
ea
fa
ed
11
eb
fc
16
fa
ff
07
0e
02
ee
e4
fd
05
ef
08
f9
ed
12
ee
e2
01
00
e0
f4
01
f2
12
02
ff
20
15
fc
fe
fc
fe
00
f0
0b
ee
13
f1
fc
01
01
f9
fe
05
eb
fc
02
08
eb
f4
de
1a
ee
fe
12
f5
17
06
0a
04
fe
09
fa
d9
d7
fe
fd
fe
fa
04
e9
dd
f3
f2
ff
fe
f0
f5
f4
12
fd
fe
02
ef
06
09
0e
fd
00
f7
fd
f8
eb
f8
f1
01
ed
ec
e5
e9
e6
fd
0d
0b
08
f4
e6
14
20
fb
f8
fe
f6
08
22
ff
03
eb
da
fa
de
fa
fe
fd
01
0d
07
eb
f1
02
fa
fd
fa
f9
fb
ff
03
f1
f5
db
e6
e6
eb
fb
00
f4
05
f8
f6
06
f4
01
01
01
f4
f6
f9
f5
15
e0
14
fb
0a
f8
1f
f0
ea
14
f1
fd
ed
12
f7
11
e8
fb
fa
11
f2
f7
f3
f3
e4
fb
f2
fe
fd
0f
f7
eb
e7
e7
e6
f9
05
e9
02
e9
f9
0c
fd
0c
fe
f5
ef
fd
23
fa
00
09
cf
01
df
0b
f6
09
f0
ed
d8
e5
ea
06
10
ef
03
f4
fd
00
fb
00
f7
01
f5
00
f6
00
03
ee
e5
f4
ff
ee
f6
02
f5
f9
0b
fd
03
f8
07
01
e7
11
20
12
08
0d
05
04
05
f6
09
06
df
ed
01
ef
fa
ff
05
06
07
fe
ff
fe
08
fe
fb
ff
fb
ff
fb
fd
fe
fd
fe
fb
fe
fa
fd
fe
fe
fd
fe
fc
fc
fb
fc
fd
fd
fa
fd
fe
fb
fe
fe
fc
fc
f9
fd
fc
fd
fd
02
fe
fe
fe
fd
fa
fd
fc
fa
fd
fb
fe
02
f2
e3
f5
fe
f9
f5
03
f5
00
fb
f9
f2
f4
0d
f5
05
f9
f7
14
f5
18
0c
fa
eb
e8
f5
e5
14
10
1c
fa
f3
07
0c
0c
f4
c9
ec
fe
04
fc
f8
fd
fa
f7
06
f6
ff
09
02
ed
f4
d6
00
fa
12
10
f4
15
df
c5
