00
f7
fd
fa
fd
f6
00
fe
fb
fb
fd
fe
08
01
fc
0a
fc
0c
fd
01
06
fa
fc
fc
fc
f6
00
f7
f5
fa
00
01
00
00
fa
f7
fd
f6
fb
fd
02
04
00
fe
f9
fa
fe
01
f5
fe
f8
02
fb
01
f4
ff
ff
ff
f6
ff
00
00
0b
ff
f4
f8
fb
f9
00
fd
ed
fa
0b
00
ff
ff
03
02
04
f7
ff
fa
fe
fe
fd
f9
00
05
ed
fe
ed
05
fe
fe
fd
fe
ff
fd
01
f3
fe
fe
fe
ff
fa
07
fa
fe
01
f8
fd
00
00
ff
f9
f7
01
ff
03
00
ee
05
f6
fe
ff
f7
f7
06
