09
eb
f9
fb
3a
01
02
09
ef
c0
2d
f8
d9
dd
10
e9
02
12
fb
f9
c3
e2
09
07
0c
05
04
0e
f7
0d
fe
fe
00
f9
fb
ca
06
e9
e6
08
05
14
04
00
e1
f7
05
f8
f3
f6
0c
03
ff
f9
19
fa
f7
08
ff
05
0e
f9
00
0d
fe
0d
10
df
fc
02
ea
11
d7
0c
07
02
1f
de
ff
05
02
ce
0b
fd
fd
1d
f9
11
fa
fe
f2
16
08
00
07
fd
f7
d3
f6
00
f9
03
00
fc
0b
fe
04
fc
c9
d1
00
d6
0e
cd
e4
13
f5
f8
fe
db
e3
17
04
fb
01
ea
04
24
fd
fb
f8
f9
ea
fa
ff
04
f4
f8
f8
f6
0b
12
e1
09
27
17
11
07
0c
e5
f8
fc
c9
ec
fb
d5
d6
e3
fb
f5
07
fc
01
16
fd
d2
00
fb
02
3d
0a
09
fb
0c
f8
f9
00
04
e8
e9
f6
03
f2
06
f7
0b
e1
ff
00
f5
19
cf
ee
ff
f2
e1
fb
fb
c8
f7
02
0a
ff
03
27
23
0b
f9
04
e4
f5
0a
fc
f5
00
16
c3
03
ec
0f
00
06
f6
fd
f7
09
07
ff
0a
f6
f9
08
04
1a
fb
07
05
fe
fd
ff
ed
14
04
e3
07
09
ff
03
da
16
f5
fb
06
05
f9
f6
08
f5
f9
0b
10
00
f6
09
f9
04
1b
08
0d
07
10
02
0f
0a
fc
fc
14
13
02
02
f8
07
fb
ec
f7
1a
0a
00
fd
06
fa
05
00
00
cf
fe
15
ee
ff
f5
d3
f7
f6
f9
e5
00
df
ea
f7
08
10
00
04
05
fd
d8
fc
05
1a
1b
d7
f6
03
09
0a
f9
10
10
07
fd
f6
f7
dd
e9
07
09
01
e2
14
ff
f9
14
ff
fc
da
f9
f6
0b
09
f5
fc
f8
fa
e8
06
05
f9
07
fd
fb
cc
cb
07
09
04
f5
06
14
fb
db
0e
e4
03
04
de
f2
e1
ba
03
f7
f6
d6
07
d1
08
de
07
f5
f9
f4
07
07
12
d5
eb
fd
1b
0b
e9
fc
ee
cc
f3
f9
0c
00
04
07
14
1a
f8
ee
f3
0a
09
08
04
02
09
18
f8
07
06
09
0a
db
f8
01
17
ff
fc
03
f5
00
ca
f7
04
0a
0d
06
05
02
f7
c9
d6
f8
0d
ec
23
f2
11
ca
fe
01
02
04
d0
01
f7
f7
e9
e4
fd
06
00
12
e4
fd
04
e5
08
18
12
09
e0
e9
ff
04
f6
fb
fc
0d
fd
f4
fa
fc
04
fe
14
f9
fd
f7
04
f7
f9
d8
16
cf
14
de
0a
0c
f9
ec
11
eb
f7
03
00
df
0e
03
08
fd
06
f5
0a
fe
fe
08
04
08
d2
ff
14
eb
df
fa
e3
28
10
f8
ce
da
f6
fd
0c
09
09
05
ef
f1
ff
06
0a
03
06
cc
f7
d3
e5
fe
c4
cd
00
00
ee
1c
f9
0a
0a
08
0d
25
05
0a
00
f5
fa
03
19
12
01
f9
eb
da
d8
0e
e3
1d
0b
ff
0c
26
14
f7
02
fc
fc
e5
0f
fc
06
f8
11
05
09
d0
fd
d6
de
ff
fa
d7
f9
07
f9
01
07
0f
fe
fd
ff
f5
0a
06
0b
ec
fe
fc
03
fa
05
13
cc
dd
d0
fd
06
03
06
10
10
d5
0a
04
fe
f3
f2
d9
05
10
fb
fc
f5
d9
00
08
e3
ce
f5
07
f0
f7
e1
c9
fa
e2
f7
ff
ff
cc
08
08
06
e2
03
15
02
f1
ff
f8
0a
fd
05
10
0a
11
0c
ff
13
db
03
01
0f
02
0a
04
f5
09
06
f6
05
f8
e3
07
ff
02
09
16
fa
fd
cb
fa
1b
ee
fa
10
f9
01
c3
f9
ee
fc
fe
fa
c5
e3
d0
01
01
13
f1
f5
f7
ff
02
0f
ed
fe
e9
22
07
00
01
f6
f6
02
09
05
fd
f6
09
09
08
0c
f5
fb
04
f5
fc
11
04
fb
0e
fd
f7
06
10
05
0c
0c
09
05
0a
12
f0
e6
f7
0a
0a
eb
e8
d2
fe
f7
ca
e5
fb
0a
e6
ef
16
cf
f8
f0
f3
fb
09
2c
01
f6
08
f6
06
db
fc
12
fa
fa
ff
05
01
fa
08
07
ee
04
fc
d8
08
02
eb
f4
08
f9
00
fb
09
12
fe
0c
d5
f9
fb
f9
f9
0f
f6
08
05
d3
01
f0
04
e1
f9
fa
cb
d6
fc
fa
01
00
08
e3
ff
03
fd
d4
d9
04
f9
fe
04
00
e5
08
15
e3
fb
02
01
02
f8
0f
f6
00
ff
fd
06
fb
cd
e0
07
f4
be
ef
03
05
1b
ed
e0
17
fd
03
11
fb
fd
12
0e
fd
f9
1a
f3
de
07
1b
fa
f6
ee
ff
f8
06
0c
0d
f1
06
0f
fb
d8
f2
fd
f1
00
08
13
1a
f8
02
c0
e8
04
00
d3
c3
07
fa
02
fe
02
f2
00
f8
d4
06
dc
cb
ff
03
ea
06
fd
ff
f0
ff
d6
1f
f9
06
06
f9
fe
0c
e9
0b
1b
fd
0d
07
03
f9
e8
14
03
fb
10
e3
13
fd
07
fa
15
06
0f
03
03
0b
0d
03
03
e9
f5
04
e5
02
ff
0a
0b
fd
f7
f6
fe
d1
06
fb
02
06
01
f8
14
31
fb
08
08
03
ff
cc
d8
f6
0c
dd
0a
08
b6
d6
f7
dc
f9
fb
08
e9
ef
1b
fa
0c
0a
00
15
0a
fb
03
04
12
fa
f6
ef
d3
0a
0d
e1
d3
f5
f7
0e
fd
fc
fd
04
0d
f6
02
13
0a
f6
fe
fe
02
ff
d8
06
08
16
fb
fe
f9
fa
07
0a
d6
f7
fa
13
03
12
c2
06
05
08
f9
f7
01
fa
e0
18
02
cf
f7
0a
fb
eb
fa
fc
f6
0f
f8
d4
0b
f9
fc
cd
e5
11
09
ff
ef
07
fd
04
0c
09
f2
f7
fc
f5
0d
fd
f9
f5
f6
09
0f
f6
e8
f9
fa
0b
08
fd
d4
00
fb
ca
09
08
0c
df
e1
fd
0d
f9
f7
f0
16
06
0c
fc
03
fe
0e
f1
ee
02
ea
02
f6
e2
0f
09
02
0b
06
02
03
eb
17
e3
17
f4
ec
f3
03
d3
e1
ff
06
09
e7
f6
0b
15
03
02
00
0a
fa
f9
f6
fd
ff
00
04
ea
01
f6
06
0d
e4
00
0a
f7
f6
07
de
06
fa
e8
f8
f8
07
fc
0d
c8
02
d1
11
00
0c
12
11
fc
f9
17
01
11
fb
06
fd
08
33
ec
00
0a
16
f6
06
0b
f2
f7
dd
da
f7
f5
da
05
fe
09
00
fb
d2
fd
04
fb
06
f6
05
08
e9
06
0a
08
fe
08
f2
f1
e3
ff
f3
fb
ff
08
10
0f
19
07
fd
f8
cf
f0
15
